unsigned char ecg_arrhythmia_model_tflite[] = {
  0x1c, 0x00, 0x00, 0x00, 0x54, 0x46, 0x4c, 0x33, 0x14, 0x00, 0x20, 0x00,
  0x1c, 0x00, 0x18, 0x00, 0x14, 0x00, 0x10, 0x00, 0x0c, 0x00, 0x00, 0x00,
  0x08, 0x00, 0x04, 0x00, 0x14, 0x00, 0x00, 0x00, 0x1c, 0x00, 0x00, 0x00,
  0x90, 0x00, 0x00, 0x00, 0xe8, 0x00, 0x00, 0x00, 0xd8, 0x79, 0x00, 0x00,
  0xe8, 0x79, 0x00, 0x00, 0xec, 0x92, 0x00, 0x00, 0x03, 0x00, 0x00, 0x00,
  0x01, 0x00, 0x00, 0x00, 0x04, 0x00, 0x00, 0x00, 0xbe, 0x81, 0xff, 0xff,
  0x0c, 0x00, 0x00, 0x00, 0x1c, 0x00, 0x00, 0x00, 0x40, 0x00, 0x00, 0x00,
  0x0f, 0x00, 0x00, 0x00, 0x73, 0x65, 0x72, 0x76, 0x69, 0x6e, 0x67, 0x5f,
  0x64, 0x65, 0x66, 0x61, 0x75, 0x6c, 0x74, 0x00, 0x01, 0x00, 0x00, 0x00,
  0x04, 0x00, 0x00, 0x00, 0x8c, 0xff, 0xff, 0xff, 0x26, 0x00, 0x00, 0x00,
  0x04, 0x00, 0x00, 0x00, 0x0d, 0x00, 0x00, 0x00, 0x71, 0x75, 0x61, 0x6e,
  0x74, 0x5f, 0x64, 0x65, 0x6e, 0x73, 0x65, 0x5f, 0x36, 0x00, 0x00, 0x00,
  0x01, 0x00, 0x00, 0x00, 0x04, 0x00, 0x00, 0x00, 0xb6, 0x85, 0xff, 0xff,
  0x04, 0x00, 0x00, 0x00, 0x0d, 0x00, 0x00, 0x00, 0x64, 0x65, 0x6e, 0x73,
  0x65, 0x5f, 0x32, 0x5f, 0x69, 0x6e, 0x70, 0x75, 0x74, 0x00, 0x00, 0x00,
  0x02, 0x00, 0x00, 0x00, 0x34, 0x00, 0x00, 0x00, 0x04, 0x00, 0x00, 0x00,
  0xdc, 0xff, 0xff, 0xff, 0x29, 0x00, 0x00, 0x00, 0x04, 0x00, 0x00, 0x00,
  0x13, 0x00, 0x00, 0x00, 0x43, 0x4f, 0x4e, 0x56, 0x45, 0x52, 0x53, 0x49,
  0x4f, 0x4e, 0x5f, 0x4d, 0x45, 0x54, 0x41, 0x44, 0x41, 0x54, 0x41, 0x00,
  0x08, 0x00, 0x0c, 0x00, 0x08, 0x00, 0x04, 0x00, 0x08, 0x00, 0x00, 0x00,
  0x28, 0x00, 0x00, 0x00, 0x04, 0x00, 0x00, 0x00, 0x13, 0x00, 0x00, 0x00,
  0x6d, 0x69, 0x6e, 0x5f, 0x72, 0x75, 0x6e, 0x74, 0x69, 0x6d, 0x65, 0x5f,
  0x76, 0x65, 0x72, 0x73, 0x69, 0x6f, 0x6e, 0x00, 0x2a, 0x00, 0x00, 0x00,
  0xec, 0x78, 0x00, 0x00, 0xe4, 0x78, 0x00, 0x00, 0xd4, 0x77, 0x00, 0x00,
  0xc4, 0x6f, 0x00, 0x00, 0xb4, 0x4f, 0x00, 0x00, 0xa4, 0x0f, 0x00, 0x00,
  0x94, 0x04, 0x00, 0x00, 0x74, 0x04, 0x00, 0x00, 0x24, 0x04, 0x00, 0x00,
  0x94, 0x03, 0x00, 0x00, 0x84, 0x02, 0x00, 0x00, 0x74, 0x01, 0x00, 0x00,
  0x6c, 0x01, 0x00, 0x00, 0x64, 0x01, 0x00, 0x00, 0x5c, 0x01, 0x00, 0x00,
  0x54, 0x01, 0x00, 0x00, 0x4c, 0x01, 0x00, 0x00, 0x44, 0x01, 0x00, 0x00,
  0x3c, 0x01, 0x00, 0x00, 0x34, 0x01, 0x00, 0x00, 0x2c, 0x01, 0x00, 0x00,
  0x24, 0x01, 0x00, 0x00, 0x1c, 0x01, 0x00, 0x00, 0x14, 0x01, 0x00, 0x00,
  0x0c, 0x01, 0x00, 0x00, 0x04, 0x01, 0x00, 0x00, 0xfc, 0x00, 0x00, 0x00,
  0xf4, 0x00, 0x00, 0x00, 0xec, 0x00, 0x00, 0x00, 0xe4, 0x00, 0x00, 0x00,
  0xdc, 0x00, 0x00, 0x00, 0xd4, 0x00, 0x00, 0x00, 0xcc, 0x00, 0x00, 0x00,
  0xc4, 0x00, 0x00, 0x00, 0xbc, 0x00, 0x00, 0x00, 0xb4, 0x00, 0x00, 0x00,
  0xac, 0x00, 0x00, 0x00, 0xa4, 0x00, 0x00, 0x00, 0x9c, 0x00, 0x00, 0x00,
  0x94, 0x00, 0x00, 0x00, 0x74, 0x00, 0x00, 0x00, 0x04, 0x00, 0x00, 0x00,
  0xda, 0x86, 0xff, 0xff, 0x04, 0x00, 0x00, 0x00, 0x60, 0x00, 0x00, 0x00,
  0x10, 0x00, 0x00, 0x00, 0x00, 0x00, 0x00, 0x00, 0x08, 0x00, 0x0e, 0x00,
  0x08, 0x00, 0x04, 0x00, 0x08, 0x00, 0x00, 0x00, 0x10, 0x00, 0x00, 0x00,
  0x24, 0x00, 0x00, 0x00, 0x00, 0x00, 0x06, 0x00, 0x08, 0x00, 0x04, 0x00,
  0x06, 0x00, 0x00, 0x00, 0x04, 0x00, 0x00, 0x00, 0x00, 0x00, 0x00, 0x00,
  0x0c, 0x00, 0x18, 0x00, 0x14, 0x00, 0x10, 0x00, 0x0c, 0x00, 0x04, 0x00,
  0x0c, 0x00, 0x00, 0x00, 0xde, 0xb0, 0x14, 0x73, 0x16, 0x4f, 0x57, 0xc0,
  0x02, 0x00, 0x00, 0x00, 0x02, 0x00, 0x00, 0x00, 0x04, 0x00, 0x00, 0x00,
  0x06, 0x00, 0x00, 0x00, 0x32, 0x2e, 0x31, 0x38, 0x2e, 0x30, 0x00, 0x00,
  0x46, 0x87, 0xff, 0xff, 0x04, 0x00, 0x00, 0x00, 0x10, 0x00, 0x00, 0x00,
  0x31, 0x2e, 0x31, 0x34, 0x2e, 0x30, 0x00, 0x00, 0x00, 0x00, 0x00, 0x00,
  0x00, 0x00, 0x00, 0x00, 0x5c, 0x6f, 0xff, 0xff, 0x60, 0x6f, 0xff, 0xff,
  0x64, 0x6f, 0xff, 0xff, 0x68, 0x6f, 0xff, 0xff, 0x6c, 0x6f, 0xff, 0xff,
  0x70, 0x6f, 0xff, 0xff, 0x74, 0x6f, 0xff, 0xff, 0x78, 0x6f, 0xff, 0xff,
  0x7c, 0x6f, 0xff, 0xff, 0x80, 0x6f, 0xff, 0xff, 0x84, 0x6f, 0xff, 0xff,
  0x88, 0x6f, 0xff, 0xff, 0x8c, 0x6f, 0xff, 0xff, 0x90, 0x6f, 0xff, 0xff,
  0x94, 0x6f, 0xff, 0xff, 0x98, 0x6f, 0xff, 0xff, 0x9c, 0x6f, 0xff, 0xff,
  0xa0, 0x6f, 0xff, 0xff, 0xa4, 0x6f, 0xff, 0xff, 0xa8, 0x6f, 0xff, 0xff,
  0xac, 0x6f, 0xff, 0xff, 0xb0, 0x6f, 0xff, 0xff, 0xb4, 0x6f, 0xff, 0xff,
  0xb8, 0x6f, 0xff, 0xff, 0xbc, 0x6f, 0xff, 0xff, 0xc0, 0x6f, 0xff, 0xff,
  0xc4, 0x6f, 0xff, 0xff, 0xc8, 0x6f, 0xff, 0xff, 0xd2, 0x87, 0xff, 0xff,
  0x04, 0x00, 0x00, 0x00, 0x00, 0x01, 0x00, 0x00, 0x4b, 0xec, 0x27, 0xbf,
  0x18, 0xb7, 0xe5, 0xbe, 0x1c, 0x28, 0xd0, 0xbe, 0x87, 0x44, 0x4e, 0xbf,
  0x93, 0xbf, 0x26, 0xbf, 0x13, 0x39, 0xa2, 0xbe, 0x03, 0x13, 0x1d, 0xbf,
  0x37, 0x53, 0x09, 0xbf, 0x31, 0xf6, 0x11, 0xbf, 0x89, 0x9f, 0xd7, 0xbe,
  0xcd, 0x9b, 0xb4, 0x3d, 0xbc, 0x0b, 0x18, 0xbf, 0x9a, 0x75, 0x0b, 0x3e,
  0xf2, 0xdb, 0x98, 0xbe, 0x82, 0xe4, 0xa7, 0xbe, 0xc1, 0x12, 0x27, 0xbf,
  0xf7, 0x0f, 0xed, 0xbe, 0x12, 0xa6, 0x93, 0xbe, 0x63, 0x4b, 0x2b, 0xbf,
  0xae, 0x57, 0x98, 0xbe, 0x13, 0xca, 0xc2, 0xbe, 0x16, 0x57, 0xe8, 0xbe,
  0x32, 0xe1, 0x14, 0xbe, 0xbd, 0x12, 0x5e, 0xbf, 0x66, 0x9e, 0x15, 0xbf,
  0xdb, 0xc1, 0x2a, 0xbf, 0x48, 0x2b, 0x58, 0xbe, 0x40, 0x97, 0x11, 0xbf,
  0x2a, 0x86, 0x03, 0xbe, 0xd7, 0xcc, 0xec, 0xbd, 0xa1, 0x88, 0x9b, 0xbe,
  0x6e, 0xff, 0x36, 0xbf, 0xe5, 0xc7, 0x3a, 0xbf, 0x69, 0xa7, 0x0b, 0xbf,
  0xb8, 0x80, 0x04, 0x3d, 0x2c, 0x40, 0x0a, 0xbf, 0xd8, 0xb3, 0x43, 0xbf,
  0x92, 0xc8, 0x96, 0xbe, 0x32, 0x42, 0xc1, 0xbe, 0xa0, 0x34, 0xf7, 0xbe,
  0xe6, 0x3c, 0x31, 0xbf, 0x3d, 0x58, 0xd2, 0x3d, 0x00, 0x72, 0xc8, 0xbe,
  0xe5, 0xe9, 0xf3, 0xbe, 0xa2, 0x0a, 0xd3, 0xbe, 0x4a, 0x6a, 0x2b, 0xbf,
  0x7f, 0xff, 0x99, 0xbe, 0xb8, 0xf0, 0x96, 0xbe, 0xe4, 0xf7, 0x07, 0xbf,
  0xa8, 0xeb, 0x02, 0xbf, 0x0f, 0x0c, 0x9b, 0xbe, 0x47, 0xb0, 0x98, 0xbe,
  0x81, 0x1f, 0x02, 0xbf, 0xec, 0x46, 0x1c, 0xbf, 0x27, 0x73, 0x40, 0xbe,
  0x50, 0xcc, 0x04, 0xbf, 0x02, 0x31, 0x92, 0xbe, 0x56, 0x13, 0x3b, 0xbf,
  0xf1, 0x39, 0x02, 0xbf, 0xaf, 0xd6, 0x18, 0xbf, 0xe7, 0x06, 0xf1, 0xbe,
  0xbd, 0xd7, 0x81, 0xbe, 0xf6, 0xa2, 0x46, 0xbf, 0xb5, 0x95, 0xcd, 0xbe,
  0xde, 0x88, 0xff, 0xff, 0x04, 0x00, 0x00, 0x00, 0x00, 0x01, 0x00, 0x00,
  0xb0, 0x32, 0x12, 0x3e, 0x74, 0x25, 0xd1, 0xbb, 0xa4, 0x32, 0x69, 0x3e,
  0xac, 0x98, 0xd5, 0xbe, 0x8e, 0xf6, 0x6f, 0x3e, 0x88, 0xbd, 0x0d, 0x3d,
  0xfa, 0x22, 0x1e, 0xbf, 0x3e, 0xaa, 0xa4, 0xbd, 0xfd, 0x31, 0xaf, 0x3c,
  0x24, 0x54, 0x4c, 0xbf, 0xdf, 0x53, 0x2e, 0xbf, 0x75, 0x08, 0x1a, 0x3e,
  0xda, 0xe8, 0xa2, 0x3e, 0xd3, 0x6d, 0x90, 0x3d, 0x46, 0xf3, 0xdf, 0x3d,
  0x6a, 0x86, 0x3c, 0x3d, 0x55, 0x54, 0x0d, 0x3e, 0x27, 0x3a, 0x11, 0x3d,
  0xbe, 0xb2, 0x66, 0xbc, 0xdd, 0x32, 0x58, 0x3e, 0x75, 0x81, 0x4c, 0x3e,
  0x53, 0x64, 0x26, 0x3d, 0x99, 0x63, 0xa3, 0xbe, 0xe5, 0x2d, 0x4c, 0x3e,
  0xcd, 0xcf, 0xd1, 0xbe, 0xc6, 0x91, 0x0b, 0x3e, 0xc0, 0x33, 0x2f, 0xbe,
  0xf2, 0x3e, 0x40, 0xbf, 0x33, 0x4f, 0xff, 0x3d, 0x5b, 0x09, 0x72, 0x3e,
  0xf0, 0x50, 0x82, 0xbc, 0x66, 0x1d, 0xc5, 0x3b, 0xba, 0x4c, 0x57, 0x3e,
  0x06, 0x23, 0xdb, 0x3c, 0x5d, 0x82, 0x40, 0xbf, 0xe0, 0x0b, 0x0a, 0x3e,
  0x4f, 0x41, 0x62, 0xbe, 0xef, 0xd9, 0x01, 0x3e, 0xe6, 0xe8, 0xf3, 0xbe,
  0x42, 0xc3, 0x3a, 0xbd, 0x47, 0x53, 0xd4, 0x3d, 0x99, 0x2f, 0x4b, 0x3d,
  0xd4, 0x1f, 0xe2, 0xbd, 0xd6, 0xd1, 0xb6, 0xbd, 0xf5, 0x7b, 0xfe, 0x3d,
  0xb8, 0x0b, 0x18, 0x3e, 0x4d, 0xaa, 0x8a, 0xbe, 0x75, 0xcd, 0xa9, 0x3e,
  0x38, 0x08, 0xa2, 0xbe, 0x80, 0xfa, 0x31, 0xbd, 0x13, 0x3e, 0x45, 0x3e,
  0xdb, 0x13, 0x11, 0xbd, 0x3a, 0x21, 0x07, 0x3e, 0xc7, 0xe2, 0xdf, 0xbd,
  0x22, 0xfd, 0xec, 0x3b, 0x97, 0xc5, 0xc6, 0xbd, 0x6b, 0x71, 0x28, 0xbc,
  0x60, 0xf3, 0x19, 0xbf, 0x85, 0xfd, 0x54, 0x3e, 0x04, 0x7b, 0x41, 0x3c,
  0x24, 0xe3, 0x30, 0xbe, 0x08, 0xf0, 0xb9, 0xbe, 0x38, 0xa5, 0x55, 0xbe,
  0x61, 0x01, 0x3c, 0x3e, 0xea, 0x89, 0xff, 0xff, 0x04, 0x00, 0x00, 0x00,
  0x80, 0x00, 0x00, 0x00, 0xb7, 0x2d, 0x90, 0x3c, 0xaf, 0x86, 0x5d, 0x3d,
  0x2c, 0x98, 0x56, 0x3d, 0x17, 0x13, 0x00, 0xbc, 0x78, 0xca, 0x2e, 0x3d,
  0x92, 0xd3, 0x16, 0x3e, 0xa5, 0x4d, 0xfa, 0x3c, 0x68, 0x91, 0x06, 0xbd,
  0xb0, 0x19, 0x51, 0x3d, 0x8b, 0x2a, 0x85, 0x3b, 0x8f, 0xce, 0x13, 0x3d,
  0xba, 0x0d, 0xf6, 0x3d, 0x50, 0x2d, 0x34, 0x3a, 0xd7, 0xac, 0xeb, 0xbc,
  0x54, 0xf1, 0x6a, 0x3c, 0xef, 0x99, 0x70, 0x3d, 0x77, 0xbf, 0x33, 0x3e,
  0x4b, 0xb1, 0x97, 0xbc, 0x57, 0xbe, 0x51, 0x3d, 0xe4, 0x90, 0xa9, 0x3e,
  0xd6, 0x00, 0xeb, 0x3d, 0x8a, 0xad, 0xa5, 0x3d, 0x4c, 0x97, 0x8b, 0x3e,
  0x76, 0xc0, 0x90, 0x3d, 0xb7, 0x37, 0x27, 0xbd, 0x71, 0x80, 0xf0, 0x3d,
  0x1e, 0xcd, 0x95, 0x3e, 0x7d, 0xbf, 0x21, 0x3e, 0x26, 0xb2, 0x38, 0x3d,
  0x7b, 0x16, 0x20, 0x3e, 0xc3, 0x2d, 0x31, 0x3e, 0x36, 0xde, 0xe3, 0x3d,
  0x76, 0x8a, 0xff, 0xff, 0x04, 0x00, 0x00, 0x00, 0x40, 0x00, 0x00, 0x00,
  0x19, 0xc1, 0x8b, 0x3f, 0xc5, 0xc0, 0x58, 0x3f, 0xd1, 0x9b, 0x2c, 0x3e,
  0xff, 0x0a, 0x4f, 0x3f, 0xa1, 0xff, 0x67, 0x3f, 0xc0, 0x2e, 0xfe, 0x3e,
  0x2c, 0x76, 0x30, 0x3f, 0xfc, 0xa1, 0x63, 0x3d, 0xd7, 0xdb, 0x44, 0x3f,
  0xb6, 0xa1, 0x43, 0x3f, 0x66, 0xac, 0xda, 0x3e, 0xcb, 0xe7, 0x55, 0x3f,
  0x14, 0xa5, 0x45, 0x3f, 0xe7, 0x52, 0x97, 0x3f, 0xf2, 0x99, 0x9e, 0x3f,
  0x16, 0xb0, 0xd0, 0x3e, 0xc2, 0x8a, 0xff, 0xff, 0x04, 0x00, 0x00, 0x00,
  0x10, 0x00, 0x00, 0x00, 0x5a, 0x50, 0x0b, 0xbe, 0xc1, 0x08, 0xfd, 0xbe,
  0xd9, 0x23, 0x97, 0x3e, 0xdc, 0x6f, 0xd7, 0x3e, 0xde, 0x8a, 0xff, 0xff,
  0x04, 0x00, 0x00, 0x00, 0x00, 0x0b, 0x00, 0x00, 0x24, 0x93, 0x85, 0x3e,
  0x81, 0xe2, 0xd4, 0x3e, 0x84, 0x03, 0x40, 0x3e, 0x4d, 0x68, 0xe1, 0x3e,
  0x1a, 0x0f, 0xd9, 0xbe, 0xb6, 0x5c, 0x48, 0x3d, 0xe4, 0x73, 0xfa, 0xbd,
  0x4d, 0x68, 0xe1, 0x3e, 0x52, 0xaa, 0xb7, 0xbe, 0x1a, 0x0f, 0xd9, 0x3d,
  0x52, 0xaa, 0x37, 0xbe, 0xd5, 0x5b, 0x18, 0xbf, 0x1f, 0x51, 0x2f, 0xbe,
  0x9e, 0xc0, 0x39, 0xbf, 0x7f, 0xc1, 0x69, 0xbd, 0xb6, 0x5c, 0xc8, 0xbd,
  0x1f, 0x51, 0x2f, 0x3e, 0x24, 0x93, 0x05, 0xbc, 0x88, 0x45, 0x96, 0x3d,
  0x1a, 0x0f, 0xd9, 0x3e, 0x84, 0x03, 0x40, 0x3e, 0xb6, 0x5c, 0xc8, 0x3c,
  0x8b, 0x66, 0x81, 0x3e, 0xb1, 0x1a, 0x72, 0x3e, 0xe4, 0x73, 0x7a, 0xbe,
  0x84, 0x03, 0x40, 0x3e, 0x1a, 0x0f, 0xd9, 0xbd, 0x52, 0xaa, 0xb7, 0xbe,
  0xbd, 0xbf, 0x89, 0x3e, 0x1f, 0x51, 0x2f, 0x3e, 0x8b, 0x66, 0x81, 0x3e,
  0xef, 0x18, 0x12, 0xbf, 0x1a, 0x0f, 0xd9, 0xbe, 0xe4, 0x73, 0xfa, 0x3d,
  0xed, 0xf7, 0x26, 0x3e, 0x88, 0x45, 0x96, 0x3d, 0xe8, 0xb5, 0x50, 0xbe,
  0x3c, 0x2f, 0x14, 0xbf, 0xb8, 0x7d, 0xb3, 0x3e, 0x1a, 0x0f, 0xd9, 0xbd,
  0x88, 0x45, 0x16, 0x3e, 0xe8, 0xb5, 0xd0, 0x3e, 0x52, 0xaa, 0x37, 0x3e,
  0xed, 0xf7, 0x26, 0xbd, 0x7f, 0xc1, 0x69, 0x3e, 0x24, 0x93, 0x85, 0x3c,
  0xbb, 0x9e, 0x9e, 0xbe, 0x4d, 0x68, 0x61, 0xbe, 0x4a, 0x47, 0xf6, 0xbe,
  0x22, 0x72, 0x9a, 0xbe, 0x24, 0x93, 0x05, 0xbc, 0xb8, 0x7d, 0xb3, 0xbe,
  0xb6, 0x5c, 0xc8, 0xbd, 0xed, 0xf7, 0x26, 0x3e, 0xb6, 0x5c, 0x48, 0x3e,
  0x7f, 0xc1, 0xe9, 0xbd, 0x4d, 0x68, 0x61, 0xbe, 0x24, 0x93, 0x05, 0xbc,
  0xb6, 0x5c, 0x48, 0x3d, 0x88, 0x45, 0x96, 0x3e, 0xb6, 0x5c, 0xc8, 0xbc,
  0xb6, 0x5c, 0xc8, 0xbd, 0x54, 0xcb, 0xa2, 0xbe, 0xed, 0xf7, 0x26, 0x3d,
  0xbb, 0x9e, 0x9e, 0xbe, 0xb8, 0x7d, 0xb3, 0xbe, 0x8b, 0x66, 0x81, 0xbe,
  0x56, 0xec, 0x0d, 0xbe, 0x24, 0x93, 0x05, 0xbc, 0xed, 0xf7, 0xa6, 0xbe,
  0x4d, 0x68, 0xe1, 0xbe, 0x9e, 0xc0, 0x39, 0xbf, 0x7f, 0xc1, 0xe9, 0x3d,
  0x1a, 0x0f, 0x59, 0x3e, 0x24, 0x93, 0x85, 0x3c, 0x88, 0x45, 0x16, 0x3e,
  0xb6, 0x5c, 0x48, 0x3e, 0x22, 0x72, 0x9a, 0xbe, 0xe8, 0xb5, 0xd0, 0xbe,
  0x52, 0xaa, 0xb7, 0x3d, 0x7f, 0xc1, 0x69, 0xbd, 0x24, 0x93, 0x85, 0xbc,
  0x1f, 0x51, 0x2f, 0xbe, 0x88, 0x45, 0x96, 0xbd, 0x88, 0x45, 0x16, 0xbe,
  0x56, 0xec, 0x0d, 0xbe, 0x24, 0x93, 0x05, 0xbe, 0xb6, 0x5c, 0x48, 0x3e,
  0xbb, 0x9e, 0x9e, 0x3e, 0xb6, 0x5c, 0xc8, 0x3c, 0x24, 0x93, 0x85, 0xbc,
  0x18, 0xee, 0xed, 0x3e, 0x71, 0xa9, 0x07, 0x3f, 0x24, 0x93, 0x85, 0x3d,
  0x1a, 0x0f, 0x59, 0x3e, 0x24, 0x93, 0x05, 0x3e, 0x88, 0x45, 0x16, 0xbe,
  0x84, 0x03, 0x40, 0x3e, 0x7f, 0xc1, 0x69, 0x3d, 0xe8, 0xb5, 0xd0, 0x3e,
  0x56, 0xec, 0x0d, 0xbe, 0x7f, 0xc1, 0x69, 0x3d, 0xeb, 0xd6, 0xbb, 0xbe,
  0x3c, 0x2f, 0x14, 0x3f, 0x4f, 0x89, 0xcc, 0x3e, 0xed, 0xf7, 0x26, 0xbe,
  0x22, 0x72, 0x9a, 0xbe, 0x24, 0x93, 0x85, 0x3d, 0x88, 0x45, 0x16, 0x3e,
  0xe8, 0xb5, 0x50, 0x3e, 0x84, 0x03, 0x40, 0xbf, 0xb4, 0x3b, 0x5d, 0x3f,
  0x24, 0x93, 0x05, 0x3d, 0x24, 0x93, 0x85, 0xbc, 0x24, 0x93, 0x85, 0x3c,
  0x00, 0x00, 0x00, 0x00, 0x24, 0x93, 0x05, 0x3c, 0x52, 0xaa, 0xb7, 0xbd,
  0xb6, 0x5c, 0xc8, 0x3c, 0xb6, 0x5c, 0xc8, 0xbc, 0x24, 0x93, 0x05, 0x3c,
  0x86, 0x24, 0x2b, 0xbf, 0xb6, 0x5c, 0x48, 0xbd, 0xb6, 0x5c, 0xc8, 0x3c,
  0x24, 0x93, 0x05, 0xbc, 0xbb, 0x9e, 0x9e, 0x3e, 0xe6, 0x94, 0xe5, 0x3e,
  0xb6, 0x5c, 0x48, 0xbd, 0x1a, 0x0f, 0xd9, 0xbd, 0x24, 0x93, 0x05, 0x3c,
  0xed, 0xf7, 0x26, 0xbd, 0xbb, 0x9e, 0x9e, 0xbe, 0x9c, 0x9f, 0x4e, 0xbf,
  0xb4, 0x3b, 0x5d, 0x3f, 0x24, 0x93, 0x05, 0xbc, 0x00, 0x00, 0x00, 0x00,
  0x24, 0x93, 0x85, 0xbc, 0x00, 0x00, 0x00, 0x00, 0x24, 0x93, 0x05, 0x3c,
  0xed, 0xf7, 0x26, 0x3d, 0x00, 0x00, 0x00, 0x00, 0x24, 0x93, 0x05, 0xbd,
  0xb6, 0x5c, 0xc8, 0x3c, 0x56, 0xec, 0x0d, 0xbe, 0x84, 0x03, 0x40, 0xbe,
  0x7f, 0xc1, 0x69, 0x3d, 0x8b, 0x66, 0x81, 0x3e, 0x24, 0x93, 0x85, 0xbc,
  0xb1, 0x1a, 0xf2, 0xbe, 0x7f, 0xc1, 0xe9, 0xbd, 0x81, 0xe2, 0xd4, 0x3e,
  0x24, 0x93, 0x05, 0xbe, 0x52, 0xaa, 0xb7, 0xbe, 0x88, 0x45, 0x16, 0xbe,
  0x6e, 0x88, 0x1c, 0xbf, 0x7f, 0xc1, 0xe9, 0x3d, 0xb6, 0x5c, 0x48, 0xbd,
  0xb1, 0x1a, 0x72, 0x3e, 0x24, 0x93, 0x05, 0x3c, 0xed, 0xf7, 0xa6, 0xbd,
  0x4d, 0x68, 0xe1, 0x3e, 0xed, 0xf7, 0x26, 0x3f, 0xbd, 0xbf, 0x89, 0xbe,
  0x24, 0x93, 0x05, 0x3d, 0xb6, 0x5c, 0x48, 0xbe, 0xb6, 0x5c, 0x48, 0xbd,
  0x24, 0x93, 0x85, 0x3d, 0xb1, 0x1a, 0x72, 0xbe, 0x24, 0x93, 0x05, 0x3c,
  0x88, 0x45, 0x16, 0x3e, 0x88, 0x45, 0x16, 0xbe, 0x1f, 0x51, 0xaf, 0x3e,
  0x1f, 0x51, 0x2f, 0xbe, 0xed, 0xf7, 0x26, 0x3e, 0x07, 0xb5, 0x20, 0xbf,
  0xd7, 0x7c, 0x03, 0xbf, 0x24, 0x93, 0x05, 0x3e, 0xed, 0xf7, 0x26, 0x3e,
  0x56, 0xec, 0x0d, 0x3f, 0x4d, 0x68, 0x61, 0x3e, 0x07, 0xb5, 0x20, 0xbf,
  0xed, 0xf7, 0x26, 0x3d, 0x4f, 0x89, 0xcc, 0x3e, 0xe4, 0x73, 0x7a, 0x3e,
  0xb6, 0x5c, 0xc8, 0xbc, 0x84, 0x03, 0x40, 0xbe, 0x1f, 0x51, 0x2f, 0x3e,
  0xbb, 0x9e, 0x9e, 0x3e, 0x00, 0x00, 0x00, 0x00, 0xe4, 0x73, 0xfa, 0xbd,
  0x54, 0xcb, 0xa2, 0x3e, 0xb6, 0x5c, 0xc8, 0x3d, 0x1a, 0x0f, 0xd9, 0x3d,
  0x24, 0x93, 0x85, 0xbc, 0xa3, 0x02, 0x10, 0xbf, 0x24, 0x93, 0x05, 0x3e,
  0xed, 0xf7, 0xa6, 0x3d, 0xe8, 0xb5, 0xd0, 0x3e, 0x4a, 0x47, 0xf6, 0xbe,
  0x52, 0xaa, 0x37, 0xbe, 0xb6, 0x5c, 0xc8, 0xbc, 0x56, 0xec, 0x0d, 0xbe,
  0x52, 0xaa, 0x37, 0x3e, 0x24, 0x93, 0x85, 0x3d, 0xb6, 0x5c, 0xc8, 0xbd,
  0x8b, 0x66, 0x01, 0xbf, 0x24, 0x93, 0x05, 0x3d, 0xb6, 0x5c, 0xc8, 0xbd,
  0xbb, 0x9e, 0x1e, 0x3e, 0x24, 0x93, 0x05, 0x3c, 0x52, 0xaa, 0xb7, 0x3e,
  0x7f, 0xc1, 0x69, 0x3d, 0xa3, 0x02, 0x10, 0x3f, 0xeb, 0xd6, 0xbb, 0x3e,
  0x8b, 0x66, 0x81, 0x3e, 0xb6, 0x5c, 0xc8, 0xbe, 0xed, 0xf7, 0x26, 0xbd,
  0xb6, 0x5c, 0x48, 0x3d, 0xed, 0xf7, 0x26, 0xbd, 0xed, 0xf7, 0xa6, 0x3e,
  0x84, 0x03, 0x40, 0xbe, 0xed, 0xf7, 0xa6, 0x3d, 0x24, 0x93, 0x05, 0x3e,
  0xe8, 0xb5, 0xd0, 0xbe, 0x52, 0xaa, 0x37, 0xbe, 0x88, 0x45, 0x16, 0x3f,
  0xed, 0xf7, 0x26, 0x3e, 0xbd, 0xbf, 0x89, 0x3e, 0x8b, 0x66, 0x01, 0xbf,
  0xed, 0xf7, 0x26, 0xbe, 0xb6, 0x5c, 0xc8, 0x3e, 0x24, 0x93, 0x85, 0x3d,
  0x7f, 0xc1, 0xe9, 0x3d, 0x52, 0xaa, 0xb7, 0xbd, 0xb6, 0x5c, 0x48, 0x3d,
  0xb4, 0x3b, 0xdd, 0x3e, 0x24, 0x93, 0x05, 0xbe, 0x1a, 0x0f, 0x59, 0xbe,
  0x18, 0xee, 0xed, 0xbe, 0xe8, 0xb5, 0xd0, 0xbe, 0x88, 0x45, 0x96, 0xbd,
  0x84, 0x03, 0xc0, 0xbe, 0x1f, 0x51, 0xaf, 0x3e, 0x1a, 0x0f, 0x59, 0x3e,
  0x7f, 0xc1, 0x69, 0xbd, 0xb4, 0x3b, 0xdd, 0xbe, 0x56, 0xec, 0x8d, 0x3e,
  0x56, 0xec, 0x0d, 0x3e, 0xed, 0xf7, 0xa6, 0x3d, 0x1f, 0x51, 0x2f, 0xbe,
  0xed, 0xf7, 0xa6, 0x3d, 0xed, 0xf7, 0x26, 0x3d, 0x52, 0xaa, 0x37, 0x3e,
  0xd3, 0x3a, 0x2d, 0x3f, 0xbd, 0xbf, 0x89, 0x3e, 0x7f, 0xc1, 0xe9, 0x3d,
  0x88, 0x45, 0x16, 0x3e, 0xb6, 0x5c, 0x48, 0x3d, 0xb6, 0x5c, 0xc8, 0x3d,
  0x8b, 0x66, 0x81, 0xbe, 0x88, 0x45, 0x96, 0x3e, 0x1f, 0x51, 0x2f, 0xbe,
  0x84, 0x03, 0x40, 0xbe, 0xed, 0xf7, 0xa6, 0x3d, 0xb6, 0x5c, 0xc8, 0xbc,
  0x7f, 0xc1, 0x69, 0x3d, 0xb6, 0x5c, 0xc8, 0xbe, 0x88, 0x45, 0x96, 0x3d,
  0x1a, 0x0f, 0xd9, 0xbd, 0x24, 0x93, 0x05, 0xbe, 0xed, 0xf7, 0x26, 0x3f,
  0xe4, 0x73, 0x7a, 0x3e, 0x1a, 0x0f, 0xd9, 0x3d, 0x88, 0x45, 0x16, 0xbf,
  0x84, 0x03, 0xc0, 0xbe, 0x24, 0x93, 0x05, 0x3e, 0x1f, 0x51, 0x2f, 0x3e,
  0xb1, 0x1a, 0x72, 0x3e, 0x84, 0x03, 0x40, 0xbe, 0x81, 0xe2, 0xd4, 0xbe,
  0x22, 0x72, 0x9a, 0xbe, 0x22, 0x72, 0x9a, 0x3e, 0xb4, 0x3b, 0xdd, 0xbe,
  0x24, 0x93, 0x05, 0x3e, 0xed, 0xf7, 0xa6, 0x3d, 0xe4, 0x73, 0xfa, 0xbd,
  0xb1, 0x1a, 0x72, 0xbf, 0x7f, 0xc1, 0xe9, 0x3e, 0x24, 0x93, 0x85, 0x3d,
  0x24, 0x93, 0x05, 0x3e, 0x7f, 0xc1, 0x69, 0xbd, 0xed, 0xf7, 0x26, 0xbd,
  0x56, 0xec, 0x0d, 0x3e, 0x1f, 0x51, 0xaf, 0x3e, 0x24, 0x93, 0x05, 0xbd,
  0x24, 0x93, 0x05, 0x3e, 0x88, 0x45, 0x16, 0xbe, 0xed, 0xf7, 0xa6, 0x3d,
  0x24, 0x93, 0x05, 0xbc, 0x1a, 0x0f, 0xd9, 0xbd, 0x8b, 0x66, 0x01, 0xbf,
  0xe4, 0x73, 0xfa, 0xbd, 0x7f, 0xc1, 0x69, 0xbe, 0xed, 0xf7, 0xa6, 0x3e,
  0x24, 0x93, 0x05, 0x3e, 0xb6, 0x5c, 0xc8, 0x3d, 0x22, 0x72, 0x9a, 0xbe,
  0x7d, 0xa0, 0xfe, 0xbe, 0xb6, 0x5c, 0xc8, 0x3c, 0x7f, 0xc1, 0x69, 0x3d,
  0x1f, 0x51, 0x2f, 0x3e, 0xb6, 0x5c, 0xc8, 0xbd, 0xb6, 0x5c, 0xc8, 0x3d,
  0x52, 0xaa, 0x37, 0x3f, 0xed, 0xf7, 0xa6, 0x3d, 0xed, 0xf7, 0xa6, 0x3d,
  0x56, 0xec, 0x0d, 0xbe, 0xb6, 0x5c, 0xc8, 0xbc, 0xed, 0xf7, 0xa6, 0x3d,
  0x1a, 0x0f, 0xd9, 0x3e, 0x24, 0x93, 0x05, 0xbe, 0xbb, 0x9e, 0x1e, 0xbf,
  0x24, 0x93, 0x05, 0x3d, 0xed, 0xf7, 0x26, 0x3e, 0x7f, 0xc1, 0xe9, 0xbd,
  0x1a, 0x0f, 0x59, 0x3e, 0xb6, 0x5c, 0xc8, 0x3d, 0x7f, 0xc1, 0x69, 0x3e,
  0x88, 0x45, 0x96, 0xbe, 0xb6, 0x5c, 0xc8, 0x3c, 0x4d, 0x68, 0xe1, 0xbe,
  0x24, 0x93, 0x85, 0x3e, 0xb6, 0x5c, 0x48, 0xbd, 0xed, 0xf7, 0xa6, 0xbe,
  0x1a, 0x0f, 0x59, 0x3e, 0xb6, 0x5c, 0xc8, 0x3e, 0x22, 0x72, 0x9a, 0x3e,
  0x88, 0x45, 0x16, 0x3e, 0xbb, 0x9e, 0x1e, 0xbe, 0x4d, 0x68, 0xe1, 0x3e,
  0x54, 0xcb, 0xa2, 0xbe, 0x03, 0x73, 0x4a, 0xbf, 0x54, 0xcb, 0xa2, 0xbe,
  0xb6, 0x5c, 0x48, 0x3d, 0x24, 0x93, 0x85, 0xbd, 0xed, 0xf7, 0xa6, 0xbe,
  0x24, 0x93, 0x85, 0xbd, 0xb6, 0x5c, 0xc8, 0x3d, 0x18, 0xee, 0xed, 0x3e,
  0xb6, 0x5c, 0x48, 0x3d, 0x1a, 0x0f, 0xd9, 0x3d, 0xed, 0xf7, 0x26, 0x3d,
  0x56, 0xec, 0x0d, 0x3f, 0x7f, 0xc1, 0x69, 0x3d, 0x81, 0xe2, 0xd4, 0x3e,
  0xb6, 0x5c, 0xc8, 0x3c, 0x52, 0xaa, 0x37, 0xbe, 0x1a, 0x0f, 0x59, 0x3e,
  0x1d, 0x30, 0x44, 0xbf, 0xbb, 0x9e, 0x1e, 0x3e, 0xb6, 0x5c, 0x48, 0x3d,
  0x88, 0x45, 0x16, 0x3e, 0xb6, 0x5c, 0xc8, 0xbd, 0xb4, 0x3b, 0xdd, 0x3e,
  0x1a, 0x0f, 0xd9, 0xbd, 0x24, 0x93, 0x85, 0xbe, 0x1f, 0x51, 0x2f, 0xbe,
  0x7f, 0xc1, 0xe9, 0x3e, 0xe6, 0x94, 0xe5, 0x3e, 0xb6, 0x5c, 0xc8, 0xbe,
  0xb1, 0x1a, 0x72, 0x3e, 0x52, 0xaa, 0xb7, 0x3d, 0x24, 0x93, 0x85, 0xbc,
  0x52, 0xaa, 0xb7, 0x3d, 0xbd, 0xbf, 0x09, 0xbf, 0x84, 0x03, 0x40, 0x3f,
  0xb6, 0x5c, 0x48, 0x3e, 0x00, 0x00, 0x00, 0x00, 0x84, 0x03, 0x40, 0xbe,
  0x24, 0x93, 0x05, 0xbd, 0x1f, 0x51, 0x2f, 0x3e, 0x24, 0x93, 0x05, 0x3c,
  0x24, 0x93, 0x05, 0xbe, 0xed, 0xf7, 0xa6, 0x3d, 0x24, 0x93, 0x05, 0xbe,
  0xb6, 0x5c, 0xc8, 0xbe, 0x24, 0x93, 0x85, 0xbd, 0x8b, 0x66, 0x81, 0xbe,
  0x22, 0x72, 0x9a, 0xbe, 0xed, 0xf7, 0xa6, 0x3d, 0x1f, 0x51, 0xaf, 0xbe,
  0xbd, 0xbf, 0x09, 0x3f, 0x7f, 0xc1, 0x69, 0x3e, 0x7f, 0xc1, 0xe9, 0xbd,
  0xb6, 0x5c, 0xc8, 0x3e, 0x24, 0x93, 0x85, 0xbd, 0x24, 0x93, 0x05, 0xbe,
  0xb6, 0x5c, 0x48, 0x3d, 0xb6, 0x5c, 0xc8, 0xbc, 0x4f, 0x89, 0x4c, 0xbf,
  0x54, 0xcb, 0xa2, 0xbe, 0x7f, 0xc1, 0xe9, 0xbd, 0xb6, 0x5c, 0xc8, 0x3c,
  0x24, 0x93, 0x05, 0x3c, 0x24, 0x93, 0x85, 0xbd, 0xb6, 0x5c, 0x48, 0x3e,
  0x7f, 0xc1, 0x69, 0xbd, 0x7f, 0xc1, 0x69, 0xbd, 0x7f, 0xc1, 0x69, 0xbd,
  0x24, 0x93, 0x85, 0x3d, 0xb6, 0x5c, 0xc8, 0xbc, 0xe4, 0x73, 0xfa, 0x3e,
  0x4d, 0x68, 0x61, 0x3e, 0x7f, 0xc1, 0xe9, 0xbd, 0x22, 0x72, 0x1a, 0xbf,
  0xb6, 0x5c, 0x48, 0x3d, 0x7f, 0xc1, 0x69, 0xbd, 0xe4, 0x73, 0xfa, 0xbd,
  0xed, 0xf7, 0x26, 0xbf, 0x7d, 0xa0, 0xfe, 0x3e, 0x24, 0x93, 0x05, 0xbd,
  0xed, 0xf7, 0x26, 0xbd, 0xb8, 0x7d, 0xb3, 0xbe, 0xb8, 0x7d, 0xb3, 0xbe,
  0xef, 0x18, 0x92, 0x3e, 0xe8, 0xb5, 0x50, 0xbe, 0x1a, 0x0f, 0xd9, 0x3d,
  0x7f, 0xc1, 0x69, 0xbd, 0x8b, 0x66, 0x81, 0x3e, 0x1a, 0x0f, 0xd9, 0xbd,
  0x84, 0x03, 0x40, 0xbe, 0xb6, 0x5c, 0xc8, 0x3c, 0xed, 0xf7, 0x26, 0xbd,
  0xed, 0xf7, 0xa6, 0x3d, 0xe6, 0x94, 0xe5, 0x3e, 0xed, 0xf7, 0x26, 0x3f,
  0xeb, 0xd6, 0xbb, 0x3e, 0x88, 0x45, 0x96, 0xbd, 0xb6, 0x5c, 0xc8, 0x3d,
  0xed, 0xf7, 0xa6, 0xbd, 0x1f, 0x51, 0x2f, 0x3e, 0x07, 0xb5, 0x20, 0xbf,
  0xb6, 0x5c, 0xc8, 0x3d, 0xb8, 0x7d, 0xb3, 0xbe, 0x52, 0xaa, 0x37, 0xbe,
  0xb6, 0x5c, 0x48, 0x3f, 0x24, 0x93, 0x85, 0xbd, 0xed, 0xf7, 0x26, 0x3e,
  0xb6, 0x5c, 0x48, 0xbd, 0xed, 0xf7, 0xa6, 0xbd, 0xed, 0xf7, 0x26, 0x3e,
  0xb6, 0x5c, 0x48, 0xbf, 0x67, 0x25, 0x5b, 0x3f, 0xb6, 0x5c, 0xc8, 0x3c,
  0x24, 0x93, 0x85, 0xbc, 0xed, 0xf7, 0x26, 0xbd, 0x24, 0x93, 0x85, 0xbc,
  0x24, 0x93, 0x05, 0xbc, 0x24, 0x93, 0x05, 0xbc, 0x24, 0x93, 0x85, 0xbc,
  0xb6, 0x5c, 0x48, 0x3d, 0xb6, 0x5c, 0xc8, 0x3c, 0x7d, 0xa0, 0xfe, 0x3e,
  0x88, 0x45, 0x96, 0xbd, 0xed, 0xf7, 0x26, 0xbd, 0xbb, 0x9e, 0x1e, 0x3e,
  0x52, 0xaa, 0xb7, 0x3d, 0x24, 0x93, 0x05, 0xbc, 0x24, 0x93, 0x05, 0xbe,
  0x8b, 0x66, 0x81, 0xbe, 0x52, 0xaa, 0xb7, 0x3d, 0x22, 0x72, 0x9a, 0xbe,
  0x3c, 0x2f, 0x14, 0xbf, 0xed, 0xf7, 0x26, 0x3d, 0x00, 0x00, 0x00, 0x00,
  0xb6, 0x5c, 0x48, 0x3d, 0x88, 0x45, 0x96, 0x3d, 0x4d, 0x68, 0x61, 0xbe,
  0x24, 0x93, 0x85, 0x3d, 0xfe, 0x87, 0x84, 0x3f, 0xb6, 0x5c, 0x48, 0x3d,
  0x88, 0x45, 0x96, 0xbd, 0xeb, 0xd6, 0xbb, 0x3e, 0x4d, 0x68, 0x61, 0xbe,
  0x18, 0xee, 0xed, 0xbe, 0x7f, 0xc1, 0x69, 0x3e, 0x22, 0x72, 0x1a, 0xbf,
  0x24, 0x93, 0x85, 0x3c, 0x54, 0xcb, 0xa2, 0xbe, 0x18, 0xee, 0xed, 0x3e,
  0x24, 0x93, 0x05, 0xbc, 0x1f, 0x51, 0x2f, 0x3e, 0xe8, 0xb5, 0x50, 0x3e,
  0x7f, 0xc1, 0x69, 0xbd, 0xbb, 0x9e, 0x9e, 0x3e, 0x24, 0x93, 0x05, 0xbf,
  0x56, 0xec, 0x0d, 0xbe, 0xb6, 0x5c, 0x48, 0x3e, 0x88, 0x45, 0x96, 0xbd,
  0xed, 0xf7, 0x26, 0x3e, 0xb6, 0x5c, 0xc8, 0xbc, 0xb8, 0x7d, 0xb3, 0xbe,
  0x84, 0x03, 0x40, 0xbe, 0xbb, 0x9e, 0x9e, 0xbe, 0xe4, 0x73, 0x7a, 0xbe,
  0x52, 0xaa, 0x37, 0x3e, 0xed, 0xf7, 0x26, 0x3e, 0x52, 0xaa, 0xb7, 0xbd,
  0xed, 0xf7, 0x26, 0xbd, 0xed, 0xf7, 0xa6, 0xbd, 0x22, 0x72, 0x9a, 0xbe,
  0x22, 0x72, 0x9a, 0xbe, 0x54, 0xcb, 0xa2, 0x3e, 0xef, 0x18, 0x92, 0xbe,
  0x24, 0x93, 0x05, 0x3f, 0xb6, 0x5c, 0xc8, 0xbe, 0x1f, 0x51, 0xaf, 0x3e,
  0x00, 0x00, 0x00, 0x00, 0x7f, 0xc1, 0xe9, 0x3d, 0x7f, 0xc1, 0xe9, 0xbd,
  0x84, 0x03, 0x40, 0xbe, 0x4f, 0x89, 0xcc, 0xbe, 0x9e, 0xc0, 0x39, 0xbf,
  0x7f, 0xc1, 0xe9, 0x3d, 0xe4, 0x73, 0x7a, 0xbe, 0x7f, 0xc1, 0x69, 0xbd,
  0x1f, 0x51, 0xaf, 0x3e, 0x52, 0xaa, 0x37, 0x3e, 0x56, 0xec, 0x8d, 0xbe,
  0x84, 0x03, 0x40, 0x3e, 0xb6, 0x5c, 0xc8, 0xbd, 0xb8, 0x7d, 0xb3, 0xbe,
  0xb8, 0x7d, 0xb3, 0xbe, 0xe8, 0xb5, 0x50, 0xbf, 0xed, 0xf7, 0x26, 0xbd,
  0x00, 0x00, 0x00, 0x00, 0x00, 0x00, 0x00, 0x00, 0x7f, 0xc1, 0xe9, 0x3d,
  0x52, 0xaa, 0x37, 0x3e, 0xb4, 0x3b, 0xdd, 0x3e, 0xed, 0xf7, 0x26, 0xbd,
  0xbb, 0x9e, 0x9e, 0xbe, 0xe8, 0xb5, 0x50, 0xbe, 0x4d, 0x68, 0x61, 0x3e,
  0xb6, 0x5c, 0x48, 0x3e, 0xed, 0xf7, 0x26, 0xbf, 0x4d, 0x68, 0x61, 0x3e,
  0xed, 0xf7, 0x26, 0xbd, 0xb6, 0x5c, 0x48, 0xbd, 0xb6, 0x5c, 0xc8, 0xbc,
  0x84, 0x03, 0xc0, 0x3e, 0xb1, 0x1a, 0xf2, 0xbe, 0xb6, 0x5c, 0xc8, 0xbc,
  0x52, 0xaa, 0x37, 0xbe, 0x7f, 0xc1, 0xe9, 0xbd, 0x88, 0x45, 0x96, 0xbd,
  0x7f, 0xc1, 0xe9, 0xbd, 0xed, 0xf7, 0x26, 0xbe, 0x52, 0xaa, 0xb7, 0x3d,
  0xb4, 0x3b, 0xdd, 0xbe, 0xb8, 0x7d, 0xb3, 0x3e, 0xeb, 0xd6, 0xbb, 0x3e,
  0x24, 0x93, 0x85, 0xbc, 0x56, 0xec, 0x0d, 0xbe, 0xed, 0xf7, 0xa6, 0xbd,
  0x88, 0x45, 0x96, 0xbe, 0x86, 0x24, 0x2b, 0xbf, 0x52, 0xaa, 0xb7, 0x3d,
  0x4f, 0x89, 0xcc, 0xbe, 0x1f, 0x51, 0x2f, 0x3e, 0x7f, 0xc1, 0x69, 0xbd,
  0xb6, 0x5c, 0x48, 0x3d, 0x52, 0xaa, 0xb7, 0xbe, 0x24, 0x93, 0x05, 0x3c,
  0xb6, 0x5c, 0x48, 0xbd, 0xd0, 0x19, 0x42, 0x3f, 0x56, 0xec, 0x0d, 0xbe,
  0x7f, 0xc1, 0xe9, 0xbd, 0xbb, 0x9e, 0x1e, 0x3e, 0xb6, 0x5c, 0xc8, 0xbd,
  0x52, 0xaa, 0xb7, 0x3d, 0x52, 0xaa, 0xb7, 0x3e, 0xed, 0xf7, 0x26, 0x3e,
  0x88, 0x45, 0x96, 0xbd, 0x1f, 0x51, 0x2f, 0x3e, 0xb6, 0x5c, 0xc8, 0x3c,
  0x52, 0xaa, 0xb7, 0xbe, 0x4f, 0x89, 0xcc, 0x3e, 0xed, 0xf7, 0x26, 0xbe,
  0xbb, 0x9e, 0x9e, 0x3e, 0x24, 0x93, 0x85, 0x3d, 0x24, 0x93, 0x05, 0xbe,
  0x4a, 0x47, 0xf6, 0x3e, 0x24, 0x93, 0x05, 0x3c, 0xef, 0x18, 0x92, 0x3e,
  0x7f, 0xc1, 0xe9, 0xbd, 0x88, 0x45, 0x96, 0x3d, 0x24, 0x93, 0x85, 0xbe,
  0x8b, 0x66, 0x01, 0x3f, 0xbb, 0x9e, 0x1e, 0x3e, 0x24, 0x93, 0x85, 0xbc,
  0x22, 0x72, 0x9a, 0xbe, 0x52, 0xaa, 0xb7, 0x3d, 0x7f, 0xc1, 0xe9, 0xbd,
  0x86, 0x24, 0xab, 0x3e, 0x88, 0x45, 0x96, 0xbd, 0x24, 0x93, 0x05, 0xbc,
  0x8b, 0x66, 0x01, 0xbf, 0x7f, 0xc1, 0x69, 0xbd, 0xe6, 0x94, 0xe5, 0x3e,
  0x86, 0x24, 0xab, 0x3e, 0xe8, 0xb5, 0x50, 0x3e, 0x88, 0x45, 0x96, 0x3e,
  0xe4, 0x73, 0xfa, 0x3d, 0xb6, 0x5c, 0xc8, 0x3e, 0x7f, 0xc1, 0x69, 0xbe,
  0xed, 0xf7, 0xa6, 0xbe, 0x24, 0x93, 0x85, 0x3c, 0xed, 0xf7, 0xa6, 0x3d,
  0x1a, 0x0f, 0xd9, 0x3d, 0xe6, 0x94, 0xe5, 0x3e, 0x4d, 0x68, 0xe1, 0x3e,
  0x88, 0x45, 0x96, 0xbd, 0x4d, 0x68, 0x61, 0xbe, 0x52, 0xaa, 0xb7, 0x3d,
  0xb1, 0x1a, 0x72, 0xbe, 0xe8, 0xb5, 0x50, 0xbe, 0x1f, 0x51, 0x2f, 0xbf,
  0x7f, 0xc1, 0xe9, 0xbd, 0xb6, 0x5c, 0x48, 0x3e, 0xed, 0xf7, 0x26, 0x3d,
  0x54, 0xcb, 0xa2, 0xbe, 0x88, 0x45, 0x96, 0xbe, 0xed, 0xf7, 0x26, 0x3e,
  0x1d, 0x30, 0xc4, 0x3e, 0x54, 0xcb, 0xa2, 0x3e, 0x1a, 0x0f, 0xd9, 0xbd,
  0x1a, 0x0f, 0xd9, 0x3d, 0x84, 0x03, 0x40, 0x3e, 0x56, 0xec, 0x8d, 0x3e,
  0x24, 0x93, 0x05, 0xbe, 0xb6, 0x5c, 0xc8, 0x3d, 0x3a, 0x0e, 0x29, 0x3f,
  0xe4, 0x73, 0x7a, 0x3e, 0xd3, 0x3a, 0x2d, 0xbf, 0xb6, 0x5c, 0x48, 0xbd,
  0x56, 0xec, 0x0d, 0xbe, 0x7f, 0xc1, 0x69, 0xbd, 0x52, 0xaa, 0xb7, 0xbd,
  0x18, 0xee, 0xed, 0x3e, 0x88, 0x45, 0x16, 0x3e, 0xd5, 0x5b, 0x18, 0xbf,
  0x24, 0x93, 0x05, 0xbc, 0x1f, 0x51, 0xaf, 0xbe, 0x00, 0x00, 0x00, 0x00,
  0x88, 0x45, 0x96, 0x3e, 0x88, 0x45, 0x96, 0x3d, 0xb6, 0x5c, 0xc8, 0x3c,
  0x56, 0xec, 0x0d, 0xbe, 0xb6, 0x5c, 0xc8, 0x3c, 0xb1, 0x1a, 0x72, 0x3e,
  0x7f, 0xc1, 0x69, 0x3d, 0xed, 0xf7, 0xa6, 0xbe, 0xb6, 0x5c, 0x48, 0xbe,
  0x86, 0x24, 0xab, 0xbe, 0x07, 0xb5, 0x20, 0x3f, 0xb6, 0x5c, 0x48, 0x3e,
  0xb6, 0x5c, 0xc8, 0xbd, 0xbb, 0x9e, 0x1e, 0x3e, 0x52, 0xaa, 0xb7, 0x3e,
  0x24, 0x93, 0x05, 0x3d, 0x52, 0xaa, 0x37, 0x3e, 0x88, 0x45, 0x16, 0xbe,
  0xb6, 0x5c, 0x48, 0xbe, 0x7f, 0xc1, 0x69, 0xbe, 0xb4, 0x3b, 0xdd, 0xbe,
  0xa0, 0xe1, 0x24, 0xbf, 0x71, 0xa9, 0x07, 0x3f, 0x88, 0x45, 0x96, 0x3e,
  0x7f, 0xc1, 0x69, 0x3d, 0x7f, 0xc1, 0xe9, 0xbd, 0xeb, 0xd6, 0xbb, 0x3e,
  0x1d, 0x30, 0xc4, 0x3e, 0xe4, 0x73, 0xfa, 0x3e, 0x56, 0xec, 0x8d, 0x3e,
  0x84, 0x03, 0xc0, 0xbe, 0x1f, 0x51, 0x2f, 0x3e, 0xb4, 0x3b, 0xdd, 0x3e,
  0x24, 0x93, 0x85, 0x3c, 0x1f, 0x51, 0x2f, 0xbe, 0x24, 0x93, 0x05, 0x3c,
  0x56, 0xec, 0x8d, 0xbe, 0x84, 0x03, 0x40, 0x3e, 0x88, 0x45, 0x96, 0xbd,
  0x24, 0x93, 0x85, 0xbc, 0xb6, 0x5c, 0xc8, 0x3d, 0x7f, 0xc1, 0xe9, 0x3d,
  0xbd, 0xbf, 0x89, 0xbe, 0xed, 0xf7, 0x26, 0xbf, 0x54, 0xcb, 0xa2, 0x3e,
  0x22, 0x72, 0x9a, 0x3e, 0x86, 0x24, 0xab, 0xbe, 0x81, 0xe2, 0xd4, 0xbe,
  0x56, 0xec, 0x0d, 0xbe, 0xea, 0x95, 0xff, 0xff, 0x04, 0x00, 0x00, 0x00,
  0x00, 0x40, 0x00, 0x00, 0xd6, 0x37, 0x4d, 0xbe, 0x00, 0x00, 0x00, 0x00,
  0xd6, 0x37, 0xcd, 0x3d, 0x76, 0x6f, 0x2e, 0xbf, 0x88, 0xc8, 0xcf, 0xbf,
  0xd6, 0x37, 0xcd, 0x3d, 0xd6, 0x37, 0x4d, 0xbf, 0x16, 0xa7, 0x0f, 0x3e,
  0x16, 0xa7, 0x8f, 0xbe, 0xab, 0x2c, 0xa4, 0x3e, 0xd6, 0x37, 0xcd, 0x3d,
  0x00, 0x43, 0x76, 0xbd, 0xab, 0x2c, 0xa4, 0x3d, 0x00, 0x43, 0xf6, 0x3d,
  0x00, 0x43, 0x76, 0xbd, 0x6b, 0xbd, 0x61, 0x3e, 0xe0, 0xe9, 0x99, 0x3e,
  0x00, 0x43, 0xf6, 0xbd, 0x40, 0xb2, 0x38, 0x3e, 0x7b, 0xc8, 0x14, 0xbf,
  0xab, 0x2c, 0xa4, 0xbc, 0xab, 0x2c, 0x24, 0x3d, 0x00, 0x00, 0x00, 0x00,
  0xd6, 0x37, 0xcd, 0x3d, 0xab, 0x2c, 0x24, 0x3d, 0x16, 0xa7, 0x8f, 0xbe,
  0xab, 0x2c, 0xa4, 0x3d, 0x00, 0x00, 0x00, 0x00, 0xdb, 0x90, 0x33, 0xbf,
  0xab, 0x2c, 0xa4, 0x3d, 0xab, 0x2c, 0xa4, 0xbc, 0x40, 0xb2, 0x38, 0x3e,
  0xd6, 0x37, 0xcd, 0xbd, 0xdb, 0x90, 0x33, 0xbf, 0xab, 0x2c, 0xa4, 0x3c,
  0xab, 0x2c, 0xa4, 0xbc, 0x63, 0x16, 0x8d, 0xbf, 0x00, 0x43, 0x76, 0xbd,
  0xd6, 0x37, 0xcd, 0xbd, 0x4b, 0x64, 0x05, 0xbf, 0x00, 0x43, 0xf6, 0xbe,
  0xd6, 0x37, 0xcd, 0x3d, 0xab, 0x2c, 0xa4, 0xbd, 0xfe, 0xf4, 0x87, 0xbf,
  0x00, 0x00, 0x00, 0x00, 0x16, 0xa7, 0x0f, 0xbe, 0x6b, 0xbd, 0x61, 0xbe,
  0x9b, 0x21, 0x71, 0xbf, 0x46, 0x0b, 0x9f, 0xbf, 0xa0, 0x7a, 0xd7, 0xbe,
  0xd6, 0x37, 0xcd, 0xbd, 0x83, 0x6f, 0xe9, 0xbf, 0x16, 0xa7, 0x0f, 0x3e,
  0x6b, 0xbd, 0x61, 0xbe, 0xd6, 0x37, 0xcd, 0x3d, 0x00, 0x43, 0xf6, 0xbd,
  0xab, 0x2c, 0x24, 0xbd, 0xab, 0x2c, 0x24, 0x3d, 0x10, 0x4e, 0x29, 0xbf,
  0x00, 0x43, 0x76, 0x3d, 0xe0, 0xe9, 0x99, 0xbe, 0x3b, 0x59, 0x52, 0xbf,
  0xab, 0x2c, 0xa4, 0xbd, 0x00, 0x00, 0x00, 0x00, 0xfe, 0xf4, 0x87, 0xbf,
  0x00, 0x43, 0x76, 0x3d, 0xdb, 0x90, 0xb3, 0xbf, 0xd0, 0xde, 0x66, 0xbf,
  0x5e, 0xbd, 0xa6, 0xbf, 0xab, 0x2c, 0x24, 0x3d, 0x00, 0x43, 0x76, 0x3e,
  0x70, 0x16, 0x48, 0xbf, 0x6b, 0xbd, 0x61, 0x3e, 0x00, 0x43, 0x76, 0x3d,
  0xab, 0x2c, 0xa4, 0x3d, 0xd6, 0x37, 0x4d, 0x3e, 0x00, 0x43, 0xf6, 0x3d,
  0xe6, 0x42, 0x80, 0xbf, 0x00, 0x00, 0x00, 0x00, 0x36, 0x00, 0xec, 0xbe,
  0x00, 0x43, 0x76, 0x3d, 0x00, 0x00, 0x00, 0x00, 0x40, 0xb2, 0x38, 0xbf,
  0xab, 0x2c, 0x24, 0x3e, 0x00, 0x43, 0xf6, 0xbd, 0xab, 0x2c, 0xa4, 0x3c,
  0xab, 0x2c, 0xa4, 0xbc, 0x88, 0xc8, 0xcf, 0xbf, 0xb0, 0x85, 0x0a, 0xbf,
  0xab, 0x2c, 0xa4, 0x3c, 0xab, 0x2c, 0x24, 0x3d, 0xab, 0x2c, 0xa4, 0xbd,
  0xab, 0x2c, 0x24, 0xbd, 0xab, 0x2c, 0xa4, 0xbc, 0x00, 0x00, 0x00, 0x00,
  0x40, 0xb2, 0xb8, 0xbe, 0x76, 0x6f, 0xae, 0xbf, 0x4b, 0x64, 0x85, 0x3e,
  0xd6, 0x37, 0xcd, 0x3d, 0xd6, 0x37, 0xcd, 0xbd, 0xab, 0x2c, 0xa4, 0xbc,
  0xab, 0x2c, 0x24, 0x3e, 0x10, 0x4e, 0x29, 0xbf, 0xab, 0x2c, 0xa4, 0x3c,
  0xd6, 0x37, 0x4d, 0xbe, 0xab, 0x2c, 0xa4, 0xbc, 0xab, 0x2c, 0xa4, 0xbe,
  0x00, 0x43, 0xf6, 0x3d, 0xd6, 0x37, 0x4d, 0x3e, 0x70, 0x16, 0x48, 0xbf,
  0xfe, 0xf4, 0x87, 0xbf, 0xab, 0x2c, 0x24, 0x3e, 0x40, 0xb2, 0x38, 0x3e,
  0x00, 0x43, 0x76, 0x3e, 0xfe, 0xf4, 0x87, 0xbf, 0x66, 0x64, 0x7b, 0xbf,
  0xab, 0x2c, 0xa4, 0x3e, 0x00, 0x43, 0x76, 0x3d, 0x40, 0xb2, 0x38, 0x3e,
  0x16, 0xa7, 0x0f, 0xbe, 0xab, 0x2c, 0xa4, 0x3d, 0xd6, 0x37, 0x4d, 0xbf,
  0xab, 0x2c, 0xa4, 0x3e, 0x0b, 0xf5, 0xc2, 0xbf, 0xdb, 0x90, 0x33, 0xbf,
  0xd6, 0x37, 0xcd, 0x3d, 0x3b, 0x59, 0x52, 0xbf, 0x6b, 0xbd, 0xe1, 0xbe,
  0x70, 0x16, 0x48, 0xbf, 0xab, 0x2c, 0x24, 0xbf, 0x16, 0xa7, 0x8f, 0x3e,
  0xab, 0x2c, 0x24, 0xbe, 0xfe, 0xf4, 0x87, 0xbf, 0x16, 0xa7, 0x0f, 0x3e,
  0x00, 0x43, 0x76, 0x3d, 0xd6, 0x37, 0x4d, 0xbf, 0x00, 0x43, 0x76, 0xbd,
  0x00, 0x00, 0x00, 0x00, 0xab, 0x2c, 0x24, 0xbe, 0xab, 0x2c, 0xa4, 0xbd,
  0xa0, 0x7a, 0xd7, 0xbe, 0xb0, 0x85, 0x0a, 0xbf, 0x4b, 0x64, 0x85, 0xbf,
  0xc3, 0xde, 0xab, 0xbf, 0x6b, 0xbd, 0xe1, 0xbe, 0xab, 0x2c, 0x24, 0x3e,
  0xe0, 0xe9, 0x19, 0xbf, 0xd6, 0x37, 0x4d, 0x3e, 0xb0, 0x85, 0x8a, 0xbf,
  0x40, 0xb2, 0x38, 0xbe, 0xab, 0x2c, 0xa4, 0xbc, 0x63, 0x16, 0x8d, 0xbf,
  0x36, 0x00, 0xec, 0xbf, 0x16, 0xa7, 0x0f, 0xbe, 0xe6, 0x42, 0x80, 0xbf,
  0xab, 0x2c, 0x24, 0x3d, 0xab, 0x2c, 0xa4, 0x3c, 0xab, 0x2c, 0x24, 0xbd,
  0xab, 0x2c, 0xa4, 0xbd, 0xd0, 0xde, 0x66, 0xbf, 0x16, 0xa7, 0x0f, 0xbf,
  0x00, 0x00, 0x00, 0x00, 0xd6, 0x37, 0x4d, 0xbe, 0x00, 0x43, 0xf6, 0x3d,
  0x00, 0x43, 0x76, 0x3e, 0x00, 0x43, 0x76, 0x3d, 0x40, 0xb2, 0x38, 0xbe,
  0xab, 0x2c, 0x24, 0x3d, 0xab, 0x2c, 0x24, 0xbe, 0x76, 0x6f, 0xae, 0xbe,
  0xab, 0x2c, 0x24, 0x3e, 0x00, 0x00, 0x00, 0x00, 0x16, 0xa7, 0x8f, 0xbe,
  0x4b, 0x64, 0x05, 0xbf, 0x40, 0xb2, 0x38, 0xbf, 0x00, 0x00, 0x00, 0x00,
  0x4b, 0x64, 0x85, 0x3e, 0xd6, 0x37, 0xcd, 0xbd, 0x00, 0x43, 0xf6, 0xbe,
  0x16, 0xa7, 0x0f, 0xbf, 0x00, 0x43, 0x76, 0x3d, 0xab, 0x2c, 0x24, 0xbd,
  0x16, 0xa7, 0x0f, 0xbe, 0x00, 0x00, 0x00, 0x00, 0x00, 0x00, 0x00, 0x00,
  0xb0, 0x85, 0x0a, 0xbf, 0x40, 0xb2, 0x38, 0x3e, 0xab, 0x2c, 0x24, 0xbe,
  0x00, 0x43, 0xf6, 0x3d, 0xab, 0x2c, 0xa4, 0x3c, 0x76, 0x6f, 0xae, 0xbe,
  0xd0, 0xde, 0x66, 0xbf, 0xab, 0x2c, 0x24, 0x3e, 0x00, 0x43, 0x76, 0x3d,
  0x00, 0x43, 0x76, 0x3e, 0xd6, 0x37, 0xcd, 0x3d, 0x00, 0x43, 0x76, 0xbd,
  0x6b, 0xbd, 0x61, 0xbe, 0x4b, 0x64, 0x85, 0x3e, 0x00, 0x43, 0x76, 0x3d,
  0x16, 0xa7, 0x0f, 0x3e, 0x6b, 0xbd, 0x61, 0xbe, 0x00, 0x43, 0x76, 0x3d,
  0x8e, 0x21, 0xb6, 0xbf, 0xab, 0x2c, 0xa4, 0x3c, 0x00, 0x43, 0x76, 0x3e,
  0xab, 0x2c, 0xa4, 0xbc, 0x40, 0xb2, 0x38, 0xbe, 0xab, 0x2c, 0xa4, 0xbd,
  0x40, 0xb2, 0x38, 0x3e, 0xa0, 0x7a, 0xd7, 0xbe, 0xab, 0x2c, 0x24, 0xbe,
  0xab, 0x2c, 0x24, 0x3e, 0x16, 0xa7, 0x8f, 0xbe, 0xab, 0x2c, 0x24, 0x3d,
  0x4b, 0x64, 0x85, 0x3e, 0x6b, 0xbd, 0x61, 0x3e, 0xa0, 0x7a, 0xd7, 0x3e,
  0xd6, 0x37, 0xcd, 0x3d, 0x76, 0x6f, 0xae, 0x3e, 0x16, 0xa7, 0x0f, 0xbf,
  0xd6, 0x37, 0xcd, 0xbd, 0xab, 0x2c, 0x24, 0xbd, 0xab, 0x2c, 0xa4, 0xbc,
  0xe0, 0xe9, 0x99, 0x3e, 0x00, 0x43, 0xf6, 0x3d, 0x00, 0x43, 0x76, 0x3d,
  0xab, 0x2c, 0x24, 0x3f, 0x70, 0x16, 0x48, 0x3f, 0x9b, 0x21, 0x71, 0xbf,
  0xd6, 0x37, 0xcd, 0x3d, 0x4b, 0x64, 0x85, 0xbe, 0xa6, 0xd3, 0x3d, 0xbf,
  0xab, 0x2c, 0xa4, 0x3c, 0xab, 0x2c, 0xa4, 0x3c, 0xab, 0x2c, 0xa4, 0xbe,
  0xab, 0x2c, 0x24, 0xbe, 0xd6, 0x37, 0xcd, 0x3d, 0x40, 0xb2, 0x38, 0x3e,
  0xab, 0x2c, 0xa4, 0xbd, 0xab, 0x2c, 0x24, 0xbd, 0x16, 0xa7, 0x0f, 0xbe,
  0xab, 0x2c, 0x24, 0x3d, 0xab, 0x2c, 0x24, 0x3d, 0x00, 0x43, 0xf6, 0x3e,
  0xab, 0x2c, 0xa4, 0xbd, 0x6b, 0xbd, 0x61, 0xbe, 0x00, 0x43, 0x76, 0xbd,
  0xa6, 0xd3, 0xbd, 0xbf, 0x76, 0x6f, 0xae, 0x3e, 0x66, 0x64, 0x7b, 0xbf,
  0x40, 0xb2, 0x38, 0x3e, 0x4b, 0x64, 0x85, 0x3e, 0xab, 0x2c, 0xa4, 0x3d,
  0xab, 0x2c, 0xa4, 0x3c, 0x6b, 0xbd, 0xe1, 0x3e, 0x40, 0xb2, 0x38, 0x3e,
  0x00, 0x00, 0x00, 0x00, 0xb0, 0x85, 0x0a, 0xbf, 0xab, 0x2c, 0xa4, 0x3c,
  0xd6, 0x37, 0xcd, 0x3d, 0xa6, 0xd3, 0xbd, 0xbf, 0x6b, 0xbd, 0x61, 0x3e,
  0x16, 0xa7, 0x8f, 0xbe, 0xab, 0x2c, 0x24, 0x3e, 0x00, 0x43, 0x76, 0xbf,
  0xab, 0x2c, 0xa4, 0x3c, 0x98, 0xd3, 0x82, 0xbf, 0xab, 0x2c, 0xa4, 0x3c,
  0x00, 0x43, 0x76, 0xbe, 0x00, 0x43, 0xf6, 0x3d, 0x00, 0x43, 0x76, 0xbf,
  0x00, 0x43, 0xf6, 0x3d, 0xab, 0x2c, 0x24, 0x3d, 0xdb, 0x90, 0x33, 0xbf,
  0xab, 0x2c, 0x24, 0x3d, 0x00, 0x43, 0x76, 0xbd, 0xbe, 0x85, 0xc5, 0xbf,
  0x2e, 0x59, 0x97, 0xbf, 0xab, 0x2c, 0x24, 0xbf, 0xe0, 0xe9, 0x99, 0xbe,
  0xd6, 0x37, 0xcd, 0x3e, 0xab, 0x2c, 0x24, 0x3d, 0x16, 0xa7, 0x8f, 0xbf,
  0x00, 0x43, 0x76, 0x3e, 0xe0, 0xe9, 0x99, 0xbe, 0xd6, 0x37, 0xcd, 0xbd,
  0xd6, 0x37, 0x4d, 0x3e, 0xab, 0x2c, 0x24, 0x3d, 0xd6, 0x37, 0x4d, 0xbe,
  0x00, 0x43, 0x76, 0x3d, 0xab, 0x2c, 0x24, 0x3d, 0x00, 0x43, 0x76, 0xbd,
  0x93, 0x7a, 0x9c, 0xbf, 0x00, 0x43, 0xf6, 0x3d, 0xd6, 0x37, 0x4d, 0xbe,
  0x36, 0x00, 0xec, 0xbe, 0xab, 0x2c, 0xa4, 0x3c, 0x00, 0x43, 0x76, 0x3d,
  0x16, 0xa7, 0x8f, 0xbe, 0x16, 0xa7, 0x0f, 0xbe, 0x40, 0xb2, 0x38, 0xbf,
  0x00, 0x43, 0x76, 0xbd, 0xab, 0x2c, 0xa4, 0xbc, 0xab, 0x2c, 0xa4, 0x3d,
  0x00, 0x43, 0x76, 0x3d, 0xab, 0x2c, 0xa4, 0xbd, 0x00, 0x43, 0x76, 0x3d,
  0xab, 0x2c, 0x24, 0x3d, 0x00, 0x00, 0x00, 0x00, 0xb0, 0x85, 0x0a, 0xbf,
  0xd6, 0x37, 0x4d, 0xbe, 0xe0, 0xe9, 0x19, 0xbf, 0x00, 0x43, 0x76, 0x3d,
  0xab, 0x2c, 0x24, 0x3d, 0x9b, 0x21, 0x71, 0xbf, 0x46, 0x0b, 0x1f, 0xbf,
  0xd6, 0x37, 0xcd, 0xbd, 0x00, 0x43, 0x76, 0xbf, 0xab, 0x2c, 0xa4, 0x3c,
  0xab, 0x2c, 0xa4, 0xbc, 0xab, 0x2c, 0x24, 0xbf, 0x00, 0x43, 0x76, 0x3d,
  0xb0, 0x85, 0x0a, 0xbf, 0x40, 0xb2, 0x38, 0xbe, 0x9b, 0x21, 0x71, 0xbf,
  0x00, 0x00, 0x00, 0x00, 0x9b, 0x21, 0x71, 0xbf, 0xab, 0x2c, 0xa4, 0x3d,
  0x16, 0xa7, 0x0f, 0x3e, 0x98, 0xd3, 0x82, 0xbf, 0x9b, 0x21, 0x71, 0xbf,
  0x16, 0xa7, 0x8f, 0xbf, 0xab, 0x2c, 0x24, 0x3e, 0x40, 0xb2, 0x38, 0xbf,
  0xab, 0x2c, 0x24, 0x3d, 0x00, 0x43, 0xf6, 0x3d, 0x00, 0x00, 0x00, 0x00,
  0xe0, 0xe9, 0x99, 0xbe, 0xab, 0x2c, 0x24, 0x3e, 0x16, 0xa7, 0x0f, 0x3e,
  0x00, 0x43, 0xf6, 0xbe, 0x00, 0x43, 0x76, 0x3d, 0x00, 0x00, 0x00, 0x00,
  0xd6, 0x37, 0xcd, 0x3e, 0x00, 0x43, 0xf6, 0xbe, 0xdb, 0x90, 0x33, 0xbf,
  0x76, 0x6f, 0x2e, 0xbf, 0xab, 0x2c, 0xa4, 0x3c, 0xab, 0x2c, 0x24, 0xbd,
  0x70, 0x16, 0x48, 0xbf, 0xb0, 0x85, 0x0a, 0xbf, 0x46, 0x0b, 0x1f, 0xbf,
  0xab, 0x2c, 0x24, 0xbe, 0x40, 0xb2, 0x38, 0xbe, 0xb0, 0x85, 0x0a, 0xbf,
  0xd0, 0xde, 0x66, 0xbf, 0x63, 0x16, 0x8d, 0xbf, 0x46, 0x0b, 0x1f, 0xbf,
  0x6b, 0xbd, 0xe1, 0xbe, 0xab, 0x2c, 0xa4, 0x3c, 0xbe, 0x85, 0xc5, 0xbf,
  0xab, 0x2c, 0xa4, 0x3d, 0xd6, 0x37, 0x4d, 0x3e, 0x98, 0xd3, 0x82, 0xbf,
  0xb0, 0x85, 0x8a, 0xbf, 0xe6, 0x42, 0x00, 0xbf, 0x00, 0x43, 0x76, 0x3d,
  0x40, 0xb2, 0x38, 0x3e, 0xa6, 0xd3, 0x3d, 0xbf, 0xe6, 0x42, 0x00, 0xbf,
  0xd6, 0x37, 0xcd, 0xbd, 0x16, 0xa7, 0x8f, 0xbe, 0xab, 0x2c, 0xa4, 0xbc,
  0xab, 0x2c, 0xa4, 0x3c, 0x4b, 0x64, 0x85, 0xbf, 0x0b, 0xf5, 0xc2, 0xbf,
  0x4b, 0x64, 0x05, 0xbf, 0x9b, 0x21, 0x71, 0xbf, 0x00, 0x43, 0x76, 0x3d,
  0x00, 0x00, 0x00, 0x00, 0x00, 0x43, 0x76, 0x3d, 0x00, 0x43, 0x76, 0x3d,
  0x58, 0x64, 0xc0, 0xbf, 0xab, 0x2c, 0x24, 0x3d, 0x16, 0xa7, 0x8f, 0x3e,
  0x40, 0xb2, 0x38, 0xbe, 0x00, 0x00, 0x00, 0x00, 0x00, 0x43, 0x76, 0x3d,
  0x6b, 0xbd, 0x61, 0x3e, 0xab, 0x2c, 0xa4, 0xbc, 0x16, 0xa7, 0x0f, 0x3e,
  0x00, 0x43, 0xf6, 0x3d, 0xab, 0x2c, 0xa4, 0x3e, 0xa0, 0x7a, 0xd7, 0xbe,
  0x6b, 0xbd, 0x61, 0xbe, 0x40, 0xb2, 0xb8, 0xbe, 0x00, 0x43, 0x76, 0x3d,
  0x4b, 0x64, 0x85, 0xbf, 0xe6, 0x42, 0x00, 0x3f, 0x00, 0x43, 0xf6, 0x3d,
  0x00, 0x43, 0x76, 0x3e, 0x40, 0xb2, 0x38, 0x3e, 0x00, 0x43, 0x76, 0x3d,
  0x40, 0xb2, 0xb8, 0x3e, 0xe0, 0xe9, 0x99, 0x3e, 0x00, 0x43, 0xf6, 0x3d,
  0x00, 0x43, 0x76, 0xbd, 0x16, 0xa7, 0x0f, 0x3e, 0x16, 0xa7, 0x0f, 0x3e,
  0xd6, 0x37, 0xcd, 0xbf, 0xd6, 0x37, 0xcd, 0x3d, 0x00, 0x43, 0x76, 0x3e,
  0x40, 0xb2, 0x38, 0xbe, 0xab, 0x2c, 0xa4, 0xbd, 0x46, 0x0b, 0x1f, 0xbf,
  0xab, 0x2c, 0x24, 0xbd, 0xab, 0x2c, 0xa4, 0xbd, 0x00, 0x43, 0xf6, 0xbe,
  0x0b, 0xf5, 0xc2, 0xbe, 0x00, 0x43, 0x76, 0xbd, 0x76, 0x6f, 0xae, 0x3e,
  0x0b, 0xf5, 0xc2, 0xbe, 0x4b, 0x64, 0x05, 0xbf, 0x98, 0xd3, 0x82, 0xbf,
  0x36, 0x00, 0xec, 0xbe, 0x00, 0x00, 0x00, 0x00, 0xab, 0x2c, 0x24, 0xbe,
  0x6b, 0xbd, 0xe1, 0x3e, 0xd6, 0x37, 0x4d, 0x3e, 0xe0, 0xe9, 0x99, 0x3e,
  0x00, 0x43, 0x76, 0x3e, 0xab, 0x2c, 0x24, 0x3e, 0x7b, 0xc8, 0x14, 0xbf,
  0xd6, 0x37, 0xcd, 0x3d, 0xab, 0x2c, 0xa4, 0x3c, 0x46, 0x0b, 0x1f, 0xbf,
  0x16, 0xa7, 0x0f, 0x3e, 0x40, 0xb2, 0x38, 0x3e, 0x06, 0x9c, 0x5c, 0xbf,
  0xab, 0x2c, 0xa4, 0x3d, 0x36, 0x00, 0x6c, 0xbf, 0xab, 0x2c, 0xa4, 0x3c,
  0xd6, 0x37, 0xcd, 0xbd, 0x16, 0xa7, 0x0f, 0x3e, 0xab, 0x2c, 0x24, 0x3d,
  0x40, 0xb2, 0x38, 0x3e, 0x00, 0x43, 0xf6, 0xbd, 0x0b, 0xf5, 0xc2, 0x3e,
  0x00, 0x43, 0x76, 0xbd, 0xa6, 0xd3, 0x3d, 0xbf, 0xab, 0x2c, 0x24, 0x3d,
  0x00, 0x00, 0x00, 0x00, 0xd6, 0x37, 0x4d, 0x3e, 0x16, 0xa7, 0x0f, 0x3e,
  0xd6, 0x37, 0x4d, 0xbe, 0x16, 0xa7, 0x8f, 0x3e, 0x16, 0xa7, 0x8f, 0xbe,
  0x00, 0x00, 0x00, 0x00, 0x16, 0xa7, 0x0f, 0x3e, 0x00, 0x43, 0x76, 0x3d,
  0xa0, 0x7a, 0xd7, 0xbe, 0x16, 0xa7, 0x0f, 0x3e, 0x40, 0xb2, 0x38, 0x3e,
  0x00, 0x43, 0x76, 0x3d, 0xab, 0x2c, 0xa4, 0x3c, 0xab, 0x2c, 0xa4, 0xbc,
  0x00, 0x00, 0x00, 0x00, 0xab, 0x2c, 0xa4, 0x3d, 0x6b, 0xbd, 0xe1, 0xbe,
  0xe0, 0xe9, 0x99, 0xbf, 0x16, 0xa7, 0x0f, 0xbe, 0x0b, 0xf5, 0xc2, 0xbe,
  0xd6, 0x37, 0x4d, 0xbe, 0xab, 0x2c, 0x24, 0x3d, 0x3b, 0x59, 0xd2, 0xbf,
  0xab, 0x2c, 0x24, 0x3d, 0x06, 0x9c, 0xdc, 0xbf, 0x00, 0x43, 0x76, 0x3e,
  0xab, 0x2c, 0x24, 0xbd, 0xab, 0x2c, 0x24, 0x3e, 0xab, 0x2c, 0xa4, 0x3e,
  0x00, 0x00, 0x00, 0x00, 0x0b, 0xf5, 0xc2, 0xbf, 0x6b, 0xbd, 0xe1, 0xbf,
  0x76, 0x6f, 0xae, 0x3e, 0x06, 0x9c, 0x5c, 0xbf, 0xab, 0x2c, 0x24, 0xbd,
  0xab, 0x2c, 0xa4, 0x3c, 0xab, 0x2c, 0xa4, 0x3d, 0x0b, 0xf5, 0x42, 0xbf,
  0xab, 0x2c, 0xa4, 0x3d, 0x00, 0x43, 0xf6, 0xbd, 0x00, 0x43, 0x76, 0xbd,
  0x16, 0xa7, 0x0f, 0xbf, 0xab, 0x2c, 0x24, 0x3d, 0xd6, 0x37, 0xcd, 0xbd,
  0x6b, 0xbd, 0x61, 0xbe, 0x76, 0x6f, 0xae, 0xbe, 0xab, 0x2c, 0xa4, 0xbd,
  0xab, 0x2c, 0xa4, 0xbc, 0x93, 0x7a, 0x9c, 0xbf, 0x10, 0x4e, 0x29, 0xbf,
  0xab, 0x2c, 0xa4, 0x3c, 0x00, 0x43, 0x76, 0x3d, 0xab, 0x2c, 0x24, 0xbe,
  0xab, 0x2c, 0xa4, 0x3d, 0x6b, 0xbd, 0x61, 0xbf, 0xd0, 0xde, 0x66, 0xbf,
  0xab, 0x2c, 0x24, 0x3d, 0xd6, 0x37, 0xcd, 0xbd, 0xab, 0x2c, 0xa4, 0xbe,
  0xd6, 0x37, 0xcd, 0x3d, 0xab, 0x2c, 0xa4, 0x3c, 0xd6, 0x37, 0xcd, 0x3d,
  0x4b, 0x64, 0x85, 0xbe, 0x16, 0xa7, 0x0f, 0xbe, 0xab, 0x2c, 0xa4, 0xbc,
  0xab, 0x2c, 0x24, 0xbd, 0xab, 0x2c, 0x24, 0xbe, 0x36, 0x00, 0xec, 0xbe,
  0xa0, 0x7a, 0x57, 0xbf, 0x40, 0xb2, 0xb8, 0x3e, 0x16, 0xa7, 0x0f, 0x3e,
  0x16, 0xa7, 0x8f, 0x3e, 0x00, 0x43, 0x76, 0xbd, 0xd6, 0x37, 0x4d, 0x3e,
  0xd6, 0x37, 0xcd, 0x3d, 0xab, 0x2c, 0xa4, 0xbd, 0xab, 0x2c, 0xa4, 0xbe,
  0x16, 0xa7, 0x8f, 0xbe, 0x76, 0x6f, 0xae, 0xbe, 0xab, 0x2c, 0xa4, 0x3c,
  0xd6, 0x37, 0xcd, 0x3d, 0xab, 0x2c, 0xa4, 0x3d, 0xab, 0x2c, 0x24, 0x3d,
  0x6b, 0xbd, 0x61, 0x3e, 0x16, 0xa7, 0x0f, 0xbe, 0x46, 0x0b, 0x1f, 0x3f,
  0xab, 0x2c, 0x24, 0xbd, 0x16, 0xa7, 0x0f, 0x3e, 0x00, 0x00, 0x00, 0x00,
  0x00, 0x43, 0x76, 0x3d, 0x00, 0x43, 0xf6, 0xbd, 0xab, 0x2c, 0xa4, 0xbd,
  0x4b, 0x64, 0x05, 0xbf, 0x00, 0x43, 0xf6, 0xbd, 0x16, 0xa7, 0x0f, 0x3e,
  0x00, 0x43, 0x76, 0x3e, 0xab, 0x2c, 0x24, 0x3e, 0xa6, 0xd3, 0x3d, 0x3f,
  0x4b, 0x64, 0x85, 0x3e, 0xab, 0x2c, 0x24, 0xbd, 0x0b, 0xf5, 0xc2, 0x3e,
  0xab, 0x2c, 0xa4, 0x3d, 0x6b, 0xbd, 0x61, 0x3e, 0xab, 0x2c, 0xa4, 0x3c,
  0x00, 0x00, 0x00, 0x00, 0x00, 0x43, 0x76, 0xbd, 0x00, 0x00, 0x00, 0x00,
  0xab, 0x2c, 0x24, 0x3f, 0x0b, 0xf5, 0xc2, 0xbe, 0xa0, 0x7a, 0xd7, 0xbe,
  0x00, 0x43, 0x76, 0xbe, 0xdb, 0x90, 0x33, 0xbf, 0x40, 0xb2, 0xb8, 0xbe,
  0x00, 0x43, 0xf6, 0xbd, 0x46, 0x0b, 0x1f, 0xbf, 0x00, 0x00, 0x00, 0x00,
  0xe0, 0xe9, 0x99, 0x3e, 0xab, 0x2c, 0xa4, 0xbd, 0x00, 0x00, 0x00, 0x00,
  0x00, 0x00, 0x00, 0x00, 0x3b, 0x59, 0x52, 0xbf, 0x00, 0x43, 0x76, 0x3d,
  0x00, 0x43, 0x76, 0xbe, 0xab, 0x2c, 0x24, 0x3d, 0xab, 0x2c, 0xa4, 0x3d,
  0xd6, 0x37, 0xcd, 0x3d, 0xb0, 0x85, 0x0a, 0xbf, 0x40, 0xb2, 0x38, 0x3e,
  0x00, 0x43, 0xf6, 0xbd, 0xd6, 0x37, 0xcd, 0x3e, 0xab, 0x2c, 0x24, 0x3e,
  0x40, 0xb2, 0xb8, 0x3e, 0xab, 0x2c, 0x24, 0x3d, 0x00, 0x43, 0x76, 0xbd,
  0xd6, 0x37, 0x4d, 0xbe, 0x00, 0x43, 0x76, 0xbd, 0x40, 0xb2, 0x38, 0x3e,
  0xc8, 0x37, 0x92, 0xbf, 0x16, 0xa7, 0x8f, 0xbe, 0x0b, 0xf5, 0x42, 0xbf,
  0xab, 0x2c, 0xa4, 0xbd, 0x4b, 0x64, 0x85, 0x3e, 0x40, 0xb2, 0x38, 0x3e,
  0xd6, 0x37, 0xcd, 0x3d, 0xd6, 0x37, 0x4d, 0x3e, 0x76, 0x6f, 0xae, 0x3e,
  0xab, 0x2c, 0xa4, 0xbc, 0x16, 0xa7, 0x0f, 0xbe, 0xb0, 0x85, 0x8a, 0xbf,
  0xd6, 0x37, 0xcd, 0xbf, 0xab, 0x2c, 0x24, 0xbe, 0xd6, 0x37, 0x4d, 0x3e,
  0x00, 0x43, 0x76, 0xbd, 0x16, 0xa7, 0x0f, 0xbf, 0xe0, 0xe9, 0x99, 0x3e,
  0x00, 0x43, 0x76, 0x3d, 0x0b, 0xf5, 0xc2, 0x3e, 0x10, 0x4e, 0x29, 0xbf,
  0xd6, 0x37, 0xcd, 0xbe, 0x46, 0x0b, 0x9f, 0xbf, 0x4b, 0x64, 0x85, 0xbe,
  0x40, 0xb2, 0x38, 0x3e, 0xab, 0x2c, 0xa4, 0xbd, 0x4b, 0x64, 0x05, 0xbf,
  0xab, 0x2c, 0xa4, 0xbc, 0x6b, 0xbd, 0x61, 0x3e, 0x7b, 0xc8, 0x14, 0xbf,
  0x00, 0x43, 0x76, 0xbd, 0xab, 0x2c, 0xa4, 0x3c, 0x66, 0x64, 0x7b, 0xbf,
  0x40, 0xb2, 0x38, 0x3e, 0x00, 0x43, 0xf6, 0x3d, 0xab, 0x2c, 0x24, 0x3e,
  0x00, 0x00, 0x00, 0x00, 0xd6, 0x37, 0xcd, 0x3d, 0x3b, 0x59, 0x52, 0xbf,
  0xd6, 0x37, 0xcd, 0xbd, 0xab, 0x2c, 0xa4, 0xbc, 0xab, 0x2c, 0x24, 0xbd,
  0xd6, 0x37, 0xcd, 0x3d, 0xbe, 0x85, 0xc5, 0xbf, 0x16, 0xa7, 0x8f, 0x3e,
  0xab, 0x2c, 0x24, 0x3d, 0x00, 0x00, 0x00, 0x00, 0x40, 0xb2, 0x38, 0xbe,
  0x16, 0xa7, 0x8f, 0x3e, 0xab, 0x2c, 0xa4, 0x3c, 0xab, 0x2c, 0xa4, 0xbc,
  0xab, 0x2c, 0xa4, 0x3c, 0xab, 0x2c, 0xa4, 0xbd, 0x00, 0x43, 0x76, 0x3e,
  0x00, 0x00, 0x00, 0x00, 0x16, 0xa7, 0x0f, 0x3e, 0xb0, 0x85, 0x0a, 0x3f,
  0xe0, 0xe9, 0x99, 0x3e, 0x40, 0xb2, 0x38, 0xbe, 0xd6, 0x37, 0xcd, 0xbd,
  0x16, 0xa7, 0x0f, 0x3e, 0xe0, 0xe9, 0x99, 0xbe, 0x00, 0x43, 0x76, 0x3d,
  0xab, 0x2c, 0xa4, 0x3e, 0x16, 0xa7, 0x0f, 0xbe, 0xb0, 0x85, 0x0a, 0x3f,
  0x76, 0x6f, 0xae, 0xbe, 0xd6, 0x37, 0xcd, 0x3d, 0x4b, 0x64, 0x05, 0x3f,
  0x0b, 0xf5, 0xc2, 0x3e, 0x6b, 0xbd, 0x61, 0xbe, 0x00, 0x00, 0x00, 0x00,
  0x4b, 0x64, 0x85, 0xbe, 0xa0, 0x7a, 0xd7, 0xbe, 0xd6, 0x37, 0xcd, 0xbd,
  0xa0, 0x7a, 0xd7, 0xbe, 0x16, 0xa7, 0x0f, 0x3e, 0x00, 0x43, 0x76, 0x3d,
  0xab, 0x2c, 0xa4, 0xbc, 0xd6, 0x37, 0xcd, 0xbd, 0xab, 0x2c, 0xa4, 0xbc,
  0xe0, 0xe9, 0x99, 0x3e, 0x16, 0xa7, 0x0f, 0x3e, 0x00, 0x43, 0x76, 0x3d,
  0xab, 0x2c, 0x24, 0x3e, 0xab, 0x2c, 0xa4, 0xbc, 0x40, 0xb2, 0x38, 0x3e,
  0x00, 0x43, 0x76, 0x3d, 0x4b, 0x64, 0x85, 0x3e, 0x40, 0xb2, 0x38, 0x3e,
  0x00, 0x00, 0x00, 0x00, 0xab, 0x2c, 0x24, 0x3e, 0x00, 0x43, 0xf6, 0xbd,
  0x16, 0xa7, 0x0f, 0xbe, 0xe0, 0xe9, 0x99, 0x3e, 0x00, 0x43, 0xf6, 0x3d,
  0xab, 0x2c, 0xa4, 0xbc, 0xab, 0x2c, 0xa4, 0xbc, 0xab, 0x2c, 0xa4, 0x3e,
  0xab, 0x2c, 0xa4, 0xbc, 0xab, 0x2c, 0x24, 0x3d, 0x00, 0x00, 0x00, 0x00,
  0x00, 0x43, 0x76, 0x3e, 0xd6, 0x37, 0xcd, 0xbd, 0x6b, 0xbd, 0xe1, 0xbe,
  0x76, 0x6f, 0xae, 0x3e, 0xab, 0x2c, 0xa4, 0xbd, 0x00, 0x43, 0xf6, 0x3d,
  0x40, 0xb2, 0x38, 0x3e, 0x16, 0xa7, 0x0f, 0xbe, 0xab, 0x2c, 0xa4, 0x3c,
  0xab, 0x2c, 0xa4, 0x3d, 0x40, 0xb2, 0x38, 0xbe, 0x16, 0xa7, 0x0f, 0x3e,
  0xd6, 0x37, 0x4d, 0xbe, 0x40, 0xb2, 0x38, 0xbe, 0xab, 0x2c, 0x24, 0x3e,
  0x00, 0x43, 0xf6, 0xbd, 0xe0, 0xe9, 0x99, 0xbe, 0xab, 0x2c, 0xa4, 0xbd,
  0x23, 0xa7, 0xca, 0xbf, 0xab, 0x2c, 0xa4, 0xbc, 0x66, 0x64, 0x7b, 0xbf,
  0xd6, 0x37, 0x4d, 0x3e, 0x40, 0xb2, 0x38, 0xbe, 0xab, 0x2c, 0x24, 0xbd,
  0xd6, 0x37, 0x4d, 0xbe, 0xab, 0x2c, 0xa4, 0x3d, 0xab, 0x2c, 0x24, 0xbd,
  0x00, 0x43, 0xf6, 0xbd, 0x00, 0x43, 0x76, 0x3e, 0xb0, 0x85, 0x0a, 0xbf,
  0xab, 0x2c, 0xa4, 0x3c, 0x36, 0x00, 0x6c, 0xbf, 0xab, 0x2c, 0xa4, 0xbc,
  0xab, 0x2c, 0xa4, 0xbc, 0xab, 0x2c, 0xa4, 0x3d, 0xab, 0x2c, 0xa4, 0x3c,
  0x16, 0xa7, 0x0f, 0x3f, 0xab, 0x2c, 0xa4, 0x3d, 0x16, 0xa7, 0x0f, 0x3e,
  0x00, 0x43, 0x76, 0x3e, 0xe6, 0x42, 0x00, 0xbf, 0xab, 0x2c, 0xa4, 0xbd,
  0x6b, 0xbd, 0x61, 0xbf, 0xab, 0x2c, 0xa4, 0xbd, 0xab, 0x2c, 0xa4, 0x3c,
  0x6b, 0xbd, 0x61, 0xbe, 0xd6, 0x37, 0x4d, 0xbe, 0xab, 0x2c, 0x24, 0xbf,
  0x7b, 0xc8, 0x14, 0xbf, 0xab, 0x2c, 0x24, 0xbd, 0x6b, 0xbd, 0x61, 0xbe,
  0xfe, 0xf4, 0x87, 0xbf, 0x00, 0x43, 0x76, 0xbd, 0xd6, 0x37, 0x4d, 0xbe,
  0xd6, 0x37, 0xcd, 0xbd, 0xab, 0x2c, 0x24, 0xbe, 0x00, 0x43, 0xf6, 0x3d,
  0xd6, 0x37, 0xcd, 0x3d, 0xab, 0x2c, 0x24, 0xbd, 0x0b, 0xf5, 0xc2, 0xbe,
  0x46, 0x0b, 0x9f, 0xbf, 0x40, 0xb2, 0x38, 0xbe, 0x16, 0xa7, 0x0f, 0xbe,
  0xab, 0x2c, 0x24, 0xbd, 0x7b, 0xc8, 0x14, 0x3f, 0x40, 0xb2, 0x38, 0xbf,
  0xab, 0x2c, 0xa4, 0x3d, 0x76, 0x6f, 0x2e, 0xbf, 0xab, 0x2c, 0xa4, 0x3d,
  0xab, 0x2c, 0xa4, 0x3c, 0x66, 0x64, 0x7b, 0xbf, 0xab, 0x2c, 0x24, 0xbd,
  0x4b, 0x64, 0x85, 0xbe, 0xd6, 0x37, 0x4d, 0x3e, 0x16, 0xa7, 0x0f, 0x3e,
  0xab, 0x2c, 0xa4, 0x3d, 0x0b, 0xf5, 0x42, 0xbf, 0xab, 0x2c, 0xa4, 0x3d,
  0xab, 0x2c, 0xa4, 0x3d, 0xd6, 0x37, 0xcd, 0xbd, 0xd6, 0x37, 0x4d, 0xbe,
  0xab, 0x2c, 0x24, 0xbe, 0x40, 0xb2, 0x38, 0xbe, 0xab, 0x2c, 0xa4, 0xbd,
  0xe6, 0x42, 0x80, 0xbf, 0x40, 0xb2, 0x38, 0xbe, 0xb8, 0x2c, 0xdf, 0xbf,
  0xa0, 0x7a, 0xd7, 0xbe, 0x22, 0x80, 0x13, 0xc0, 0xab, 0x2c, 0xa4, 0x3c,
  0x40, 0xb2, 0x38, 0xbe, 0xab, 0x2c, 0xa4, 0xbd, 0xe0, 0xe9, 0x99, 0x3e,
  0xab, 0x2c, 0xa4, 0xbd, 0x4b, 0x64, 0x85, 0xbe, 0xa0, 0x7a, 0xd7, 0xbe,
  0x40, 0xb2, 0x38, 0x3e, 0xab, 0x2c, 0x24, 0xbd, 0x00, 0x43, 0xf6, 0xbd,
  0xe0, 0xe9, 0x99, 0xbf, 0xd6, 0x37, 0x4d, 0x3e, 0xd6, 0x37, 0xcd, 0x3d,
  0x6b, 0xbd, 0xe1, 0xbe, 0x00, 0x43, 0x76, 0xbd, 0xe6, 0x42, 0x00, 0xbf,
  0x00, 0x00, 0x00, 0x00, 0x16, 0xa7, 0x0f, 0xbf, 0x00, 0x43, 0xf6, 0xbd,
  0xab, 0x2c, 0x24, 0xbd, 0xd6, 0x37, 0x4d, 0xbf, 0xe0, 0xe9, 0x99, 0xbe,
  0x00, 0x43, 0xf6, 0xbd, 0x40, 0xb2, 0xb8, 0xbe, 0x16, 0xa7, 0x8f, 0xbe,
  0x06, 0x9c, 0x5c, 0xbf, 0x16, 0xa7, 0x8f, 0xbe, 0xab, 0x2c, 0xa4, 0xbd,
  0x4b, 0x64, 0x05, 0xc0, 0xab, 0x2c, 0x24, 0x3d, 0x0b, 0xf5, 0xc2, 0xbe,
  0xab, 0x2c, 0x24, 0xbe, 0xd6, 0x37, 0x4d, 0xbe, 0x00, 0x00, 0x00, 0x00,
  0xab, 0x2c, 0xa4, 0xbd, 0xd6, 0x37, 0x4d, 0xbe, 0x7b, 0xc8, 0x14, 0xbf,
  0xd6, 0x37, 0xcd, 0xbd, 0xab, 0x2c, 0x24, 0xbd, 0x16, 0xa7, 0x8f, 0x3e,
  0xe6, 0x42, 0x80, 0xbf, 0xab, 0x2c, 0xa4, 0x3c, 0x40, 0xb2, 0xb8, 0xbe,
  0xab, 0x2c, 0x24, 0xbe, 0xab, 0x2c, 0x24, 0xbe, 0xe6, 0x42, 0x00, 0xbf,
  0x40, 0xb2, 0x38, 0xbe, 0xab, 0x2c, 0xa4, 0xbe, 0xab, 0x2c, 0xa4, 0x3d,
  0x76, 0x6f, 0x2e, 0xbf, 0xd6, 0x37, 0x4d, 0x3e, 0xe6, 0x42, 0x80, 0xbf,
  0xab, 0x2c, 0xa4, 0x3d, 0x00, 0x43, 0x76, 0xbe, 0x00, 0x43, 0x76, 0x3d,
  0xe0, 0xe9, 0x99, 0xbf, 0x00, 0x43, 0x76, 0x3d, 0xab, 0x2c, 0xa4, 0xbd,
  0x6b, 0xbd, 0x61, 0x3e, 0xe6, 0x42, 0x00, 0xbf, 0x0b, 0xf5, 0xc2, 0xbe,
  0xab, 0x2c, 0xa4, 0x3c, 0x16, 0xa7, 0x0f, 0x3e, 0xab, 0x2c, 0xa4, 0x3c,
  0x00, 0x43, 0xf6, 0x3d, 0xab, 0x2c, 0xa4, 0x3d, 0x4b, 0x64, 0x05, 0x3f,
  0x63, 0x16, 0x8d, 0xbf, 0xb0, 0x85, 0x8a, 0xbf, 0x36, 0x00, 0xec, 0x3e,
  0xab, 0x2c, 0x24, 0xbe, 0xab, 0x2c, 0xa4, 0xbd, 0x40, 0xb2, 0x38, 0x3e,
  0xab, 0x2c, 0x24, 0xbd, 0x00, 0x43, 0x76, 0xbe, 0xab, 0x2c, 0xa4, 0x3c,
  0x16, 0xa7, 0x0f, 0xbf, 0xab, 0x2c, 0xa4, 0x3d, 0xab, 0x2c, 0xa4, 0xbc,
  0xab, 0x2c, 0xa4, 0xbc, 0x00, 0x43, 0x76, 0x3d, 0xab, 0x2c, 0xa4, 0x3c,
  0x6b, 0xbd, 0x61, 0xbe, 0xab, 0x2c, 0x24, 0xbe, 0x4b, 0x64, 0x85, 0xbe,
  0xab, 0x2c, 0xa4, 0xbd, 0x00, 0x00, 0x00, 0x00, 0xd6, 0x37, 0xcd, 0xbd,
  0x16, 0xa7, 0x0f, 0x3e, 0x00, 0x00, 0x00, 0x00, 0xd6, 0x37, 0xcd, 0x3d,
  0xd6, 0x37, 0xcd, 0x3d, 0x00, 0x43, 0x76, 0x3d, 0x76, 0x6f, 0xae, 0xbe,
  0x4b, 0x64, 0x85, 0xbe, 0xab, 0x2c, 0x24, 0x3e, 0x16, 0xa7, 0x8f, 0x3e,
  0xd6, 0x37, 0xcd, 0xbd, 0xe0, 0xe9, 0x99, 0xbe, 0x16, 0xa7, 0x8f, 0xbe,
  0xd6, 0x37, 0x4d, 0xbf, 0x6b, 0xbd, 0x61, 0xbe, 0x70, 0x16, 0xc8, 0xbf,
  0x16, 0xa7, 0x0f, 0xbe, 0xab, 0x2c, 0x24, 0x3e, 0x4b, 0x64, 0x85, 0x3e,
  0x00, 0x43, 0x76, 0x3d, 0x00, 0x43, 0xf6, 0x3d, 0xab, 0x2c, 0xa4, 0xbc,
  0x76, 0x6f, 0x2e, 0xbf, 0x10, 0x4e, 0xa9, 0xbf, 0x40, 0xb2, 0x38, 0x3e,
  0xd6, 0x37, 0x4d, 0xbf, 0x3b, 0x59, 0x52, 0xbf, 0x00, 0x00, 0x00, 0x00,
  0xd0, 0xde, 0x66, 0xbf, 0x16, 0xa7, 0x0f, 0xbe, 0x36, 0x00, 0x6c, 0xbf,
  0xab, 0x2c, 0xa4, 0xbe, 0xe6, 0x42, 0x80, 0xbf, 0x00, 0x43, 0xf6, 0x3d,
  0xab, 0x2c, 0xa4, 0x3d, 0xa6, 0xd3, 0x3d, 0xbf, 0xab, 0x2c, 0x24, 0xbd,
  0xab, 0x2c, 0xa4, 0x3c, 0xe6, 0x42, 0x80, 0xbf, 0xd6, 0x37, 0xcd, 0x3d,
  0x36, 0x00, 0xec, 0xbf, 0x3b, 0x59, 0x52, 0xbf, 0x46, 0x0b, 0x1f, 0xbf,
  0x00, 0x43, 0xf6, 0xbd, 0x76, 0x6f, 0x2e, 0xbf, 0xd6, 0x37, 0xcd, 0x3d,
  0x9b, 0x21, 0x71, 0xbf, 0xab, 0x2c, 0xa4, 0x3d, 0xab, 0x2c, 0xa4, 0xbe,
  0xab, 0x2c, 0x24, 0xbd, 0xab, 0x2c, 0x24, 0x3d, 0x40, 0xb2, 0xb8, 0xbf,
  0x00, 0x43, 0xf6, 0xbd, 0xe0, 0xe9, 0x19, 0xbf, 0x00, 0x43, 0xf6, 0xbd,
  0xab, 0x2c, 0xa4, 0x3c, 0xab, 0x2c, 0xa4, 0x3c, 0x00, 0x43, 0x76, 0x3d,
  0xab, 0x2c, 0xa4, 0x3d, 0x36, 0x00, 0xec, 0xbe, 0xd0, 0xde, 0x66, 0xbf,
  0x16, 0xa7, 0x0f, 0x3e, 0x66, 0x64, 0x7b, 0xbf, 0xab, 0x2c, 0x24, 0x3d,
  0x16, 0xa7, 0x0f, 0x3e, 0xab, 0x2c, 0x24, 0x3e, 0x16, 0xa7, 0x0f, 0xbf,
  0xd6, 0x37, 0xcd, 0x3d, 0xab, 0x2c, 0xa4, 0x3d, 0xe6, 0x42, 0x00, 0xc0,
  0x16, 0xa7, 0x0f, 0x3e, 0x16, 0xa7, 0x0f, 0xbe, 0x16, 0xa7, 0x0f, 0x3e,
  0xf8, 0x9b, 0xa1, 0xbf, 0x8e, 0x21, 0xb6, 0xbf, 0x16, 0xa7, 0x0f, 0x3e,
  0xd6, 0x37, 0x4d, 0x3e, 0xab, 0x2c, 0x24, 0x3e, 0xb0, 0x85, 0x0a, 0xbf,
  0x3b, 0x59, 0x52, 0xbf, 0xab, 0x2c, 0xa4, 0xbc, 0x00, 0x43, 0xf6, 0x3d,
  0xab, 0x2c, 0xa4, 0xbc, 0x6b, 0xbd, 0x61, 0x3e, 0x00, 0x43, 0x76, 0x3d,
  0x00, 0x43, 0xf6, 0xbe, 0xab, 0x2c, 0xa4, 0x3d, 0x40, 0xb2, 0x38, 0xbf,
  0x4b, 0x64, 0x85, 0x3e, 0xd6, 0x37, 0xcd, 0x3d, 0xf3, 0x42, 0xbb, 0xbf,
  0xfe, 0xf4, 0x87, 0xbf, 0xab, 0x2c, 0xa4, 0xbc, 0xab, 0x2c, 0xa4, 0x3d,
  0x00, 0x00, 0x00, 0x00, 0x40, 0xb2, 0xb8, 0x3e, 0xab, 0x2c, 0x24, 0x3d,
  0xd6, 0x37, 0xcd, 0x3d, 0xe6, 0x42, 0x00, 0xbf, 0xab, 0x2c, 0xa4, 0x3c,
  0x16, 0xa7, 0x8f, 0x3e, 0xe0, 0xe9, 0x99, 0x3e, 0x2e, 0x59, 0x97, 0xbf,
  0xab, 0x2c, 0xa4, 0x3c, 0x4e, 0xb2, 0xf3, 0xbf, 0xab, 0x2c, 0xa4, 0x3c,
  0xe6, 0x42, 0x00, 0xbf, 0x6b, 0xbd, 0x61, 0x3e, 0x00, 0x43, 0x76, 0x3d,
  0xab, 0x2c, 0xa4, 0xbd, 0x00, 0x43, 0x76, 0x3d, 0xe0, 0xe9, 0x99, 0x3e,
  0x76, 0x6f, 0xae, 0xbe, 0xab, 0x2c, 0x24, 0x3e, 0xab, 0x2c, 0xa4, 0xbc,
  0xab, 0x2c, 0x24, 0x3e, 0xab, 0x2c, 0xa4, 0x3c, 0x00, 0x43, 0x76, 0x3d,
  0x66, 0x64, 0x7b, 0xbf, 0x16, 0xa7, 0x8f, 0x3e, 0xd6, 0x37, 0xcd, 0xbd,
  0x00, 0x43, 0x76, 0xbd, 0x66, 0x64, 0x7b, 0xbf, 0x4b, 0x64, 0x85, 0xbe,
  0xd6, 0x37, 0xcd, 0x3d, 0xab, 0x2c, 0x24, 0x3e, 0x36, 0x00, 0xec, 0xbe,
  0xa6, 0xd3, 0xbd, 0xbf, 0x40, 0xb2, 0x38, 0xbe, 0x00, 0x43, 0xf6, 0x3d,
  0x40, 0xb2, 0x38, 0xbf, 0xd6, 0x37, 0x4d, 0xbe, 0x6b, 0xbd, 0xe1, 0xbe,
  0x53, 0x0b, 0xda, 0xbf, 0xab, 0x2c, 0x24, 0x3d, 0x06, 0x9c, 0x5c, 0xbf,
  0x16, 0xa7, 0x0f, 0x3e, 0x16, 0xa7, 0x8f, 0xbe, 0x00, 0x00, 0x00, 0x00,
  0x0b, 0xf5, 0xc2, 0xbe, 0x53, 0x0b, 0xda, 0xbf, 0xd6, 0x37, 0x4d, 0x3e,
  0xab, 0x2c, 0xa4, 0xbc, 0xab, 0x2c, 0xa4, 0xbc, 0x00, 0x43, 0x76, 0x3d,
  0x76, 0x6f, 0xae, 0xbe, 0x00, 0x43, 0xf6, 0x3d, 0x00, 0x43, 0x76, 0x3d,
  0x00, 0x43, 0x76, 0x3d, 0x66, 0x64, 0x7b, 0xbf, 0x40, 0xb2, 0xb8, 0x3e,
  0x00, 0x00, 0x00, 0x00, 0xab, 0x2c, 0x24, 0xbd, 0x16, 0xa7, 0x0f, 0xbe,
  0xab, 0x2c, 0xa4, 0x3d, 0xab, 0x2c, 0xa4, 0xbc, 0xe0, 0xe9, 0x19, 0xbf,
  0xab, 0x2c, 0xa4, 0xbd, 0x4b, 0x64, 0x05, 0xbf, 0x7b, 0xc8, 0x14, 0xbf,
  0x00, 0x43, 0x76, 0xbe, 0xab, 0x2c, 0x24, 0xbd, 0x40, 0xb2, 0x38, 0xbe,
  0x7b, 0xc8, 0x94, 0xbf, 0x6b, 0xbd, 0xe1, 0x3e, 0xab, 0x2c, 0x24, 0x3d,
  0x00, 0x43, 0xf6, 0x3d, 0x00, 0x43, 0xf6, 0xbd, 0xab, 0x2c, 0x24, 0x3d,
  0xc8, 0x37, 0x92, 0xbf, 0x00, 0x00, 0x00, 0x00, 0x40, 0xb2, 0x38, 0xbe,
  0x40, 0xb2, 0x38, 0x3e, 0xab, 0x2c, 0x24, 0xbd, 0x98, 0xd3, 0x82, 0xbf,
  0xab, 0x2c, 0x24, 0x3e, 0x40, 0xb2, 0x38, 0xbe, 0x46, 0x0b, 0x1f, 0xbf,
  0xab, 0x2c, 0x24, 0xbe, 0xab, 0x2c, 0xa4, 0xbf, 0x00, 0x43, 0x76, 0xbe,
  0x0b, 0xf5, 0xc2, 0x3e, 0x00, 0x43, 0xf6, 0x3d, 0xa0, 0x7a, 0xd7, 0xbe,
  0xab, 0x2c, 0x24, 0x3d, 0x00, 0x43, 0x76, 0xbd, 0x40, 0xb2, 0x38, 0xbe,
  0xe6, 0x42, 0x80, 0xbf, 0x4b, 0x64, 0x85, 0xbf, 0x00, 0x43, 0x76, 0x3d,
  0x00, 0x43, 0x76, 0x3d, 0x00, 0x43, 0x76, 0xbd, 0x40, 0xb2, 0x38, 0x3f,
  0xd6, 0x37, 0x4d, 0x3e, 0xab, 0x2c, 0xa4, 0x3d, 0xab, 0x2c, 0xa4, 0x3d,
  0x00, 0x43, 0x76, 0xbd, 0x00, 0x43, 0xf6, 0x3d, 0xab, 0x2c, 0xa4, 0x3d,
  0xe0, 0xe9, 0x99, 0x3e, 0xab, 0x2c, 0xa4, 0x3c, 0x76, 0x6f, 0xae, 0xbf,
  0x0b, 0xf5, 0xc2, 0xbe, 0xab, 0x2c, 0xa4, 0xbc, 0xab, 0x2c, 0xa4, 0x3e,
  0x00, 0x43, 0xf6, 0xbd, 0x40, 0xb2, 0x38, 0xbf, 0x6b, 0xbd, 0xe1, 0xbe,
  0x4b, 0x64, 0x85, 0x3e, 0xab, 0x2c, 0x24, 0x3e, 0xd6, 0x37, 0xcd, 0xbd,
  0xab, 0x2c, 0xa4, 0xbd, 0xab, 0x2c, 0x24, 0x3e, 0x9b, 0x21, 0x71, 0xbf,
  0x00, 0x43, 0xf6, 0xbd, 0x46, 0x0b, 0x9f, 0xbf, 0x16, 0xa7, 0x0f, 0xbe,
  0xab, 0x2c, 0xa4, 0xbd, 0x00, 0x43, 0xf6, 0xbd, 0x00, 0x00, 0x00, 0x00,
  0x00, 0x43, 0x76, 0xbe, 0xab, 0x2c, 0x24, 0xbd, 0x00, 0x43, 0x76, 0x3e,
  0xab, 0x2c, 0xa4, 0x3c, 0x6b, 0xbd, 0x61, 0xbe, 0x00, 0x43, 0xf6, 0x3d,
  0xd0, 0xde, 0xe6, 0xbf, 0xd6, 0x37, 0xcd, 0x3d, 0xd6, 0x37, 0x4d, 0xbf,
  0xd6, 0x37, 0xcd, 0x3d, 0xab, 0x2c, 0x24, 0x3d, 0x16, 0xa7, 0x0f, 0xbe,
  0xab, 0x2c, 0x24, 0x3d, 0x00, 0x43, 0x76, 0xbd, 0xab, 0x2c, 0xa4, 0x3c,
  0xab, 0x2c, 0xa4, 0x3c, 0x00, 0x00, 0x00, 0x00, 0xe0, 0xe9, 0x99, 0xbe,
  0xd6, 0x37, 0x4d, 0x3e, 0x0b, 0xf5, 0x42, 0xbf, 0x40, 0xb2, 0x38, 0xbe,
  0xd6, 0x37, 0x4d, 0x3e, 0xab, 0x2c, 0x24, 0x3d, 0x36, 0x00, 0xec, 0x3e,
  0x6b, 0xbd, 0x61, 0x3e, 0xd6, 0x37, 0xcd, 0xbd, 0x00, 0x43, 0x76, 0x3d,
  0xab, 0x2c, 0xa4, 0xbd, 0x16, 0xa7, 0x8f, 0xbe, 0x40, 0xb2, 0x38, 0xbe,
  0xab, 0x2c, 0x24, 0x3d, 0x00, 0x43, 0xf6, 0xbd, 0xab, 0x2c, 0xa4, 0xbd,
  0x0b, 0xf5, 0x42, 0xbf, 0xab, 0x2c, 0x24, 0x3d, 0x6b, 0xbd, 0x61, 0x3e,
  0xdb, 0x90, 0xb3, 0xbf, 0x16, 0xa7, 0x8f, 0x3e, 0xab, 0x2c, 0xa4, 0xbd,
  0xa0, 0x7a, 0xd7, 0xbe, 0xc8, 0x37, 0x92, 0xbf, 0xab, 0x2c, 0xa4, 0x3c,
  0x00, 0x43, 0xf6, 0x3e, 0xe6, 0x42, 0x00, 0xbf, 0x6b, 0xbd, 0x61, 0xbe,
  0xab, 0x2c, 0xa4, 0x3d, 0xd6, 0x37, 0xcd, 0x3d, 0x98, 0xd3, 0x02, 0xc0,
  0xe8, 0x90, 0xee, 0xbf, 0xab, 0x2c, 0x24, 0xbd, 0xab, 0x2c, 0x24, 0xbd,
  0x00, 0x43, 0x76, 0xbe, 0x40, 0xb2, 0xb8, 0x3e, 0xab, 0x2c, 0x24, 0x3d,
  0xd6, 0x37, 0xcd, 0x3d, 0x00, 0x43, 0x76, 0x3d, 0xab, 0x2c, 0xa4, 0x3c,
  0x16, 0xa7, 0x0f, 0x3e, 0x4b, 0x64, 0x85, 0xbe, 0xab, 0x2c, 0x24, 0xbe,
  0xd6, 0x37, 0x4d, 0xbe, 0xdb, 0x90, 0xb3, 0xbf, 0x16, 0xa7, 0x0f, 0xbe,
  0xe0, 0xe9, 0x99, 0xbe, 0x40, 0xb2, 0xb8, 0xbe, 0x00, 0x00, 0x00, 0x00,
  0xab, 0x2c, 0xa4, 0xbf, 0xe6, 0x42, 0x80, 0xbf, 0xfe, 0xf4, 0x87, 0xbf,
  0x0b, 0xf5, 0xc2, 0xbe, 0xd6, 0x37, 0xcd, 0x3d, 0x00, 0x43, 0xf6, 0xbe,
  0x76, 0x6f, 0xae, 0x3e, 0x16, 0xa7, 0x8f, 0x3e, 0xab, 0x2c, 0xa4, 0xbc,
  0x16, 0xa7, 0x0f, 0xbe, 0xab, 0x2c, 0xa4, 0x3d, 0xd6, 0x37, 0xcd, 0xbd,
  0x00, 0x00, 0x00, 0x00, 0x10, 0x4e, 0x29, 0xbf, 0x16, 0xa7, 0x8f, 0xbe,
  0x76, 0x6f, 0xae, 0xbe, 0x7b, 0xc8, 0x14, 0xbf, 0xd6, 0x37, 0x4d, 0x3e,
  0x00, 0x43, 0x76, 0x3e, 0x00, 0x00, 0x00, 0x00, 0x00, 0x43, 0x76, 0x3d,
  0x00, 0x43, 0xf6, 0xbe, 0x00, 0x43, 0x76, 0xbd, 0xd6, 0x37, 0xcd, 0x3e,
  0x00, 0x43, 0x76, 0x3d, 0x16, 0xa7, 0x0f, 0x3e, 0x00, 0x00, 0x00, 0x00,
  0xab, 0x2c, 0xa4, 0x3c, 0x00, 0x43, 0x76, 0x3d, 0xab, 0x2c, 0x24, 0xbe,
  0xb0, 0x85, 0x8a, 0xbf, 0xab, 0x2c, 0xa4, 0x3e, 0xab, 0x2c, 0xa4, 0x3d,
  0xab, 0x2c, 0x24, 0x3e, 0xe6, 0x42, 0x00, 0x3f, 0xe6, 0x42, 0x00, 0xbf,
  0x6b, 0xbd, 0xe1, 0x3e, 0x00, 0x43, 0x76, 0x3d, 0x16, 0xa7, 0x8f, 0xbe,
  0x00, 0x43, 0x76, 0x3d, 0x00, 0x43, 0xf6, 0xbe, 0x4b, 0x64, 0x85, 0xbe,
  0xab, 0x2c, 0xa4, 0xbc, 0x36, 0x00, 0xec, 0xbe, 0x16, 0xa7, 0x8f, 0xbe,
  0xd6, 0x37, 0xcd, 0x3d, 0x76, 0x6f, 0xae, 0x3e, 0x40, 0xb2, 0x38, 0x3e,
  0x76, 0x6f, 0x2e, 0xbf, 0xf3, 0x42, 0xbb, 0xbf, 0x0b, 0xf5, 0xc2, 0x3e,
  0x16, 0xa7, 0x0f, 0x3e, 0xab, 0x2c, 0xa4, 0xbc, 0xd6, 0x37, 0xcd, 0x3d,
  0xd6, 0x37, 0xcd, 0x3d, 0xab, 0x2c, 0xa4, 0x3c, 0xe0, 0xe9, 0x19, 0x3f,
  0x76, 0x6f, 0x2e, 0xbf, 0x16, 0xa7, 0x8f, 0xbe, 0xd6, 0x37, 0xcd, 0x3d,
  0x9b, 0x21, 0x71, 0xbf, 0xab, 0x2c, 0xa4, 0xbd, 0xab, 0x2c, 0x24, 0x3d,
  0xab, 0x2c, 0xa4, 0xbd, 0x4b, 0x64, 0x85, 0xbe, 0xab, 0x2c, 0x24, 0xbf,
  0x00, 0x43, 0x76, 0x3d, 0x00, 0x43, 0xf6, 0xbd, 0xab, 0x2c, 0xa4, 0x3c,
  0x00, 0x43, 0xf6, 0x3d, 0x00, 0x00, 0x00, 0x00, 0x4b, 0x64, 0x85, 0xbe,
  0x4b, 0x64, 0x85, 0xbf, 0x6b, 0xbd, 0xe1, 0xbf, 0x36, 0x00, 0x6c, 0xbf,
  0x40, 0xb2, 0x38, 0x3e, 0xe0, 0xe9, 0x99, 0x3e, 0xe0, 0xe9, 0x19, 0xbf,
  0x00, 0x43, 0x76, 0x3d, 0xab, 0x2c, 0x24, 0xbd, 0x4b, 0x64, 0x85, 0xbe,
  0x16, 0xa7, 0x0f, 0xbe, 0xab, 0x2c, 0xa4, 0xbc, 0xab, 0x2c, 0x24, 0x3d,
  0x36, 0x00, 0x6c, 0xbf, 0xdb, 0x90, 0xb3, 0xbf, 0xab, 0x2c, 0x24, 0xbd,
  0xab, 0x2c, 0x24, 0xbe, 0xab, 0x2c, 0x24, 0xbd, 0x6b, 0xbd, 0xe1, 0xbe,
  0xe0, 0xe9, 0x99, 0xbe, 0xab, 0x2c, 0x24, 0xbe, 0x4b, 0x64, 0x05, 0xbf,
  0x00, 0x43, 0xf6, 0xbd, 0xd6, 0x37, 0xcd, 0xbd, 0xa0, 0x7a, 0x57, 0xbf,
  0xab, 0x2c, 0xa4, 0x3c, 0xe0, 0xe9, 0x99, 0x3e, 0x7b, 0xc8, 0x14, 0xbf,
  0x40, 0xb2, 0x38, 0xbe, 0x76, 0x6f, 0xae, 0xbe, 0xab, 0x2c, 0xa4, 0x3c,
  0x16, 0xa7, 0x0f, 0xbe, 0x66, 0x64, 0x7b, 0xbf, 0xd6, 0x37, 0x4d, 0xbe,
  0x00, 0x43, 0x76, 0x3d, 0xab, 0x2c, 0x24, 0xbe, 0xab, 0x2c, 0x24, 0x3e,
  0xab, 0x2c, 0xa4, 0xbc, 0xab, 0x2c, 0xa4, 0xbc, 0x00, 0x00, 0x00, 0x00,
  0xb0, 0x85, 0x0a, 0xbf, 0x00, 0x43, 0x76, 0x3d, 0xab, 0x2c, 0xa4, 0x3c,
  0xd6, 0x37, 0xcd, 0xbd, 0xab, 0x2c, 0x24, 0xbd, 0xab, 0x2c, 0x24, 0xbe,
  0x00, 0x43, 0xf6, 0xbe, 0x4b, 0x64, 0x85, 0xbf, 0x00, 0x43, 0x76, 0x3e,
  0x16, 0xa7, 0x8f, 0xbe, 0x40, 0xb2, 0xb8, 0xbf, 0x76, 0x6f, 0xae, 0xbf,
  0x00, 0x00, 0x00, 0x00, 0xd6, 0x37, 0x4d, 0xbf, 0x40, 0xb2, 0x38, 0x3e,
  0xe6, 0x42, 0x00, 0x3f, 0x00, 0x43, 0x76, 0xbd, 0x16, 0xa7, 0x0f, 0xbf,
  0x16, 0xa7, 0x8f, 0xbe, 0x00, 0x00, 0x00, 0x00, 0x16, 0xa7, 0x0f, 0xbe,
  0x16, 0xa7, 0x0f, 0xbe, 0xab, 0x2c, 0xa4, 0x3d, 0xb0, 0x85, 0x0a, 0xbf,
  0xdb, 0x90, 0xb3, 0xbf, 0xab, 0x2c, 0x24, 0x3d, 0x0a, 0xce, 0x0b, 0xc0,
  0x00, 0x00, 0x00, 0x00, 0xab, 0x2c, 0xa4, 0x3d, 0xab, 0x2c, 0xa4, 0x3d,
  0x70, 0x16, 0x48, 0xbf, 0xab, 0x2c, 0x24, 0x3d, 0xd6, 0x37, 0x4d, 0x3e,
  0xab, 0x2c, 0x24, 0x3d, 0x6b, 0xbd, 0x61, 0x3e, 0x76, 0x6f, 0xae, 0xbe,
  0xb0, 0x85, 0x0a, 0xbf, 0xc8, 0x37, 0x12, 0xc0, 0x40, 0xb2, 0x38, 0xbf,
  0xa0, 0x7a, 0xd7, 0xbe, 0x00, 0x00, 0x00, 0x00, 0xab, 0x2c, 0xa4, 0x3d,
  0x63, 0x16, 0x8d, 0xbf, 0x40, 0xb2, 0x38, 0xbe, 0x9b, 0x21, 0x71, 0xbf,
  0x00, 0x43, 0x76, 0xbd, 0xab, 0x2c, 0x24, 0x3e, 0xd6, 0x37, 0xcd, 0xbd,
  0x10, 0x4e, 0x29, 0xbf, 0xd6, 0x37, 0xcd, 0x3d, 0x40, 0xb2, 0x38, 0xbe,
  0xab, 0x2c, 0x24, 0x3d, 0x36, 0x00, 0xec, 0xbe, 0xab, 0x2c, 0xa4, 0xbc,
  0xab, 0x2c, 0xa4, 0x3d, 0x40, 0xb2, 0xb8, 0xbe, 0xab, 0x2c, 0xa4, 0x3c,
  0xab, 0x2c, 0x24, 0xbe, 0x16, 0xa7, 0x0f, 0x3e, 0xab, 0x2c, 0x24, 0x3d,
  0xab, 0x2c, 0x24, 0x3d, 0x00, 0x43, 0x76, 0x3d, 0xab, 0x2c, 0xa4, 0x3c,
  0x00, 0x00, 0x00, 0x00, 0x9b, 0x21, 0x71, 0xbf, 0xab, 0x2c, 0xa4, 0x3d,
  0x00, 0x00, 0x00, 0x00, 0xab, 0x2c, 0xa4, 0x3c, 0x10, 0x4e, 0x29, 0xbf,
  0x8e, 0x21, 0xb6, 0xbf, 0x6b, 0xbd, 0x61, 0xbe, 0x7b, 0xc8, 0x14, 0xc0,
  0xab, 0x2c, 0xa4, 0x3d, 0xa6, 0xd3, 0xbd, 0xbf, 0xab, 0x2c, 0xa4, 0xbf,
  0x16, 0xa7, 0x0f, 0xbf, 0x40, 0xb2, 0x38, 0x3e, 0xfe, 0xf4, 0x87, 0xbf,
  0xab, 0x2c, 0x24, 0x3d, 0x70, 0x16, 0x48, 0xbf, 0x63, 0x16, 0x8d, 0xbf,
  0x4b, 0x64, 0x85, 0x3e, 0xd6, 0x37, 0x4d, 0xbe, 0xab, 0x2c, 0x24, 0x3d,
  0xd0, 0xde, 0xe6, 0xbf, 0xd6, 0x37, 0x4d, 0x3e, 0x83, 0x6f, 0xe9, 0xbf,
  0xab, 0x2c, 0xa4, 0x3c, 0x6b, 0xbd, 0x61, 0xbe, 0x16, 0xa7, 0x0f, 0x3e,
  0x63, 0x16, 0x8d, 0xbf, 0x00, 0x00, 0x00, 0x00, 0xd6, 0x37, 0xcd, 0xbf,
  0x4b, 0x64, 0x85, 0xbe, 0xa0, 0x7a, 0x57, 0xbf, 0xab, 0x2c, 0x24, 0xbd,
  0x00, 0x43, 0xf6, 0x3d, 0xf3, 0x42, 0xbb, 0xbf, 0xd6, 0x37, 0x4d, 0xbf,
  0x9b, 0x21, 0x71, 0xbf, 0x16, 0xa7, 0x0f, 0x3f, 0x00, 0x43, 0x76, 0x3d,
  0x7b, 0xc8, 0x14, 0xbf, 0x70, 0x16, 0x48, 0xbf, 0xd6, 0x37, 0x4d, 0x3e,
  0xab, 0x2c, 0xa4, 0xbc, 0x40, 0xb2, 0x38, 0xbe, 0x00, 0x43, 0xf6, 0xbf,
  0xab, 0x2c, 0x24, 0xbe, 0xab, 0x2c, 0xa4, 0x3c, 0x7b, 0xc8, 0x14, 0xbf,
  0x00, 0x43, 0x76, 0xbd, 0x7b, 0xc8, 0x14, 0xbf, 0xab, 0x2c, 0x24, 0xbd,
  0x40, 0xb2, 0x38, 0x3e, 0x16, 0xa7, 0x0f, 0x3f, 0xa0, 0x7a, 0xd7, 0xbe,
  0x76, 0x6f, 0xae, 0x3e, 0x00, 0x43, 0x76, 0xbd, 0x70, 0x16, 0x48, 0xbf,
  0x00, 0x43, 0x76, 0x3d, 0x16, 0xa7, 0x0f, 0x3e, 0x16, 0xa7, 0x8f, 0x3e,
  0x76, 0x6f, 0xae, 0xbe, 0xf3, 0x42, 0xbb, 0xbf, 0x00, 0x43, 0x76, 0x3d,
  0x00, 0x00, 0x00, 0x00, 0x40, 0xb2, 0x38, 0x3e, 0x00, 0x43, 0x76, 0x3d,
  0x00, 0x43, 0x76, 0x3d, 0x00, 0x43, 0x76, 0x3d, 0x4b, 0x64, 0x85, 0x3e,
  0x16, 0xa7, 0x0f, 0x3e, 0xd6, 0x37, 0xcd, 0xbd, 0x6b, 0xbd, 0xe1, 0xbe,
  0xab, 0x2c, 0xa4, 0xbf, 0xe0, 0xe9, 0x99, 0xbe, 0xe0, 0xe9, 0x99, 0xbe,
  0x00, 0x43, 0xf6, 0x3d, 0xab, 0x2c, 0xa4, 0xbd, 0x00, 0x43, 0x76, 0x3d,
  0x40, 0xb2, 0x38, 0x3e, 0x40, 0xb2, 0xb8, 0xbf, 0x16, 0xa7, 0x0f, 0xbe,
  0xab, 0x2c, 0x24, 0xbd, 0x00, 0x43, 0xf6, 0xbd, 0xab, 0x2c, 0x24, 0x3d,
  0x00, 0x43, 0xf6, 0x3d, 0xab, 0x2c, 0x24, 0x3d, 0xab, 0x2c, 0xa4, 0xbc,
  0x16, 0xa7, 0x8f, 0x3e, 0xab, 0x2c, 0xa4, 0x3d, 0xab, 0x2c, 0x24, 0xbd,
  0xab, 0x2c, 0xa4, 0xbc, 0xab, 0x2c, 0xa4, 0x3d, 0x00, 0x43, 0xf6, 0xbd,
  0x4b, 0x64, 0x85, 0x3e, 0x40, 0xb2, 0xb8, 0x3e, 0xab, 0x2c, 0x24, 0x3d,
  0xab, 0x2c, 0x24, 0xbe, 0x7b, 0xc8, 0x14, 0xbf, 0x6b, 0xbd, 0x61, 0x3e,
  0x16, 0xa7, 0x8f, 0xbe, 0x6b, 0xbd, 0x61, 0xbe, 0x40, 0xb2, 0x38, 0x3e,
  0xab, 0x2c, 0x24, 0xbe, 0xa0, 0x7a, 0xd7, 0xbe, 0x16, 0xa7, 0x0f, 0x3e,
  0xab, 0x2c, 0x24, 0x3d, 0xab, 0x2c, 0xa4, 0x3c, 0xd6, 0x37, 0xcd, 0xbd,
  0xab, 0x2c, 0x24, 0xbd, 0x00, 0x00, 0x00, 0x00, 0x76, 0x6f, 0xae, 0xbe,
  0x00, 0x43, 0x76, 0xbd, 0x5e, 0xbd, 0xa6, 0xbf, 0xab, 0x2c, 0xa4, 0x3c,
  0x6b, 0xbd, 0x61, 0x3e, 0xe0, 0xe9, 0x99, 0x3e, 0x40, 0xb2, 0x38, 0x3e,
  0xab, 0x2c, 0x24, 0x3d, 0xab, 0x2c, 0xa4, 0x3e, 0xab, 0x2c, 0x24, 0xbd,
  0xe0, 0xe9, 0x99, 0x3e, 0x00, 0x00, 0x00, 0x00, 0x4b, 0x64, 0x85, 0xbe,
  0x00, 0x00, 0x00, 0x00, 0x16, 0xa7, 0x0f, 0x3e, 0x16, 0xa7, 0x0f, 0x3e,
  0xab, 0x2c, 0x24, 0x3d, 0xab, 0x2c, 0x24, 0xbd, 0xab, 0x2c, 0xa4, 0x3d,
  0x00, 0x43, 0x76, 0xbd, 0x16, 0xa7, 0x8f, 0x3e, 0x00, 0x43, 0x76, 0xbd,
  0xab, 0x2c, 0x24, 0xbe, 0x16, 0xa7, 0x8f, 0x3e, 0xab, 0x2c, 0xa4, 0x3d,
  0x40, 0xb2, 0x38, 0x3e, 0xab, 0x2c, 0xa4, 0x3c, 0xe6, 0x42, 0x00, 0x3f,
  0xab, 0x2c, 0xa4, 0x3d, 0xab, 0x2c, 0x24, 0xbd, 0x0b, 0xf5, 0xc2, 0xbe,
  0xab, 0x2c, 0xa4, 0x3c, 0xab, 0x2c, 0x24, 0xbf, 0x7b, 0xc8, 0x14, 0x3f,
  0x16, 0xa7, 0x0f, 0x3e, 0x76, 0x6f, 0xae, 0xbe, 0xd6, 0x37, 0xcd, 0x3d,
  0xb0, 0x85, 0x8a, 0xbf, 0x00, 0x00, 0x00, 0x00, 0xab, 0x2c, 0xa4, 0xbc,
  0xab, 0x2c, 0xa4, 0xbe, 0x00, 0x00, 0x00, 0x00, 0x36, 0x00, 0xec, 0xbe,
  0xab, 0x2c, 0x24, 0x3d, 0xbe, 0x85, 0xc5, 0xbf, 0xab, 0x2c, 0x24, 0x3e,
  0x70, 0x16, 0x48, 0xbf, 0x00, 0x43, 0xf6, 0xbd, 0xd6, 0x37, 0xcd, 0xbe,
  0x40, 0xb2, 0x38, 0xbe, 0x88, 0xc8, 0xcf, 0xbf, 0xab, 0x2c, 0xa4, 0xbc,
  0xab, 0x2c, 0x24, 0xbd, 0x40, 0xb2, 0x38, 0xbe, 0xab, 0x2c, 0x24, 0x3e,
  0xab, 0x2c, 0xa4, 0xbe, 0xab, 0x2c, 0xa4, 0xbd, 0x00, 0x43, 0x76, 0x3d,
  0x16, 0xa7, 0x0f, 0x3e, 0x3b, 0x59, 0x52, 0xbf, 0x00, 0x00, 0x00, 0x00,
  0xab, 0x2c, 0xa4, 0xbd, 0x00, 0x43, 0x76, 0xbf, 0x00, 0x43, 0x76, 0x3d,
  0x4b, 0x64, 0x85, 0xbf, 0x00, 0x43, 0x76, 0x3d, 0xab, 0x2c, 0xa4, 0xbc,
  0x00, 0x43, 0xf6, 0x3d, 0xa6, 0xd3, 0x3d, 0xbf, 0x3b, 0x59, 0xd2, 0xbf,
  0x36, 0x00, 0x6c, 0xbf, 0x16, 0xa7, 0x0f, 0xbe, 0xfe, 0xf4, 0x87, 0xbf,
  0x70, 0x16, 0x48, 0xbf, 0xab, 0x2c, 0x24, 0x3e, 0x3b, 0x59, 0x52, 0xbf,
  0xab, 0x2c, 0x24, 0xbd, 0x4b, 0x64, 0x85, 0xbf, 0xab, 0x2c, 0x24, 0xbf,
  0xab, 0x2c, 0x24, 0x3d, 0xab, 0x2c, 0x24, 0xbe, 0xab, 0x2c, 0x24, 0xbd,
  0xab, 0x2c, 0xa4, 0xbc, 0x00, 0x43, 0x76, 0x3d, 0xab, 0x2c, 0x24, 0x3d,
  0xab, 0x2c, 0xa4, 0x3c, 0xa6, 0xd3, 0x3d, 0xbf, 0xd6, 0x37, 0x4d, 0xbf,
  0x00, 0x43, 0xf6, 0xbd, 0xdb, 0x90, 0x33, 0xbf, 0xab, 0x2c, 0x24, 0xbd,
  0x16, 0xa7, 0x0f, 0xbf, 0xd6, 0x37, 0x4d, 0xbe, 0xab, 0x2c, 0x24, 0x3d,
  0x7b, 0xc8, 0x14, 0xbf, 0xd6, 0x37, 0x4d, 0x3e, 0x7b, 0xc8, 0x14, 0xbf,
  0xab, 0x2c, 0x24, 0xbd, 0xab, 0x2c, 0x24, 0xbe, 0x00, 0x43, 0x76, 0x3d,
  0xab, 0x2c, 0xa4, 0x3c, 0x00, 0x00, 0x00, 0x00, 0xab, 0x2c, 0xa4, 0xbc,
  0xa0, 0x7a, 0xd7, 0xbe, 0xd6, 0x37, 0xcd, 0x3e, 0xab, 0x2c, 0xa4, 0x3d,
  0xab, 0x2c, 0xa4, 0x3d, 0x7b, 0xc8, 0x14, 0xbf, 0xab, 0x2c, 0xa4, 0xbc,
  0xe0, 0xe9, 0x99, 0xbf, 0xab, 0x2c, 0xa4, 0x3c, 0xd6, 0x37, 0xcd, 0x3d,
  0x00, 0x43, 0xf6, 0x3d, 0x16, 0xa7, 0x8f, 0xbe, 0xab, 0x2c, 0xa4, 0x3d,
  0x00, 0x43, 0x76, 0xbd, 0x36, 0x00, 0x6c, 0xbf, 0xd6, 0x37, 0xcd, 0x3d,
  0x16, 0xa7, 0x0f, 0x3e, 0x10, 0x4e, 0x29, 0xbf, 0xab, 0x2c, 0xa4, 0x3c,
  0x40, 0xb2, 0xb8, 0xbe, 0x40, 0xb2, 0x38, 0x3e, 0xab, 0x2c, 0xa4, 0x3e,
  0x00, 0x43, 0x76, 0x3d, 0xe0, 0xe9, 0x19, 0x3f, 0x40, 0xb2, 0x38, 0xbf,
  0x16, 0xa7, 0x0f, 0xbf, 0x00, 0x43, 0x76, 0x3d, 0xab, 0x2c, 0x24, 0x3e,
  0xab, 0x2c, 0xa4, 0x3c, 0x9b, 0x21, 0x71, 0xbf, 0xab, 0x2c, 0xa4, 0x3c,
  0x4b, 0x64, 0x85, 0x3e, 0xb0, 0x85, 0x8a, 0x3f, 0x28, 0x00, 0xb1, 0xbf,
  0x4b, 0x64, 0x85, 0x3e, 0xab, 0x2c, 0x24, 0xbd, 0xd6, 0x37, 0xcd, 0xbe,
  0xab, 0x2c, 0x24, 0x3d, 0x70, 0x16, 0x48, 0xbf, 0x40, 0xb2, 0x38, 0x3e,
  0xd6, 0x37, 0xcd, 0xbd, 0xab, 0x2c, 0xa4, 0xbc, 0xe0, 0xe9, 0x99, 0x3e,
  0x00, 0x00, 0x00, 0x00, 0xd6, 0x37, 0x4d, 0x3e, 0x6b, 0xbd, 0x61, 0xbf,
  0xab, 0x2c, 0xa4, 0x3c, 0xab, 0x2c, 0xa4, 0x3d, 0xab, 0x2c, 0xa4, 0x3d,
  0xab, 0x2c, 0xa4, 0x3c, 0x36, 0x00, 0xec, 0xbe, 0xab, 0x2c, 0xa4, 0xbe,
  0xe0, 0xe9, 0x99, 0xbf, 0x6b, 0xbd, 0x61, 0x3e, 0x3b, 0x59, 0x52, 0xbf,
  0xab, 0x2c, 0x24, 0xbe, 0x00, 0x43, 0x76, 0xbe, 0xd6, 0x37, 0xcd, 0x3d,
  0x40, 0xb2, 0x38, 0xbe, 0xd6, 0x37, 0x4d, 0x3e, 0x4b, 0x64, 0x85, 0xbe,
  0xd6, 0x37, 0xcd, 0xbd, 0xab, 0x2c, 0xa4, 0x3d, 0x06, 0x9c, 0x5c, 0xbf,
  0x00, 0x00, 0x00, 0x00, 0xab, 0x2c, 0xa4, 0xbd, 0x4b, 0x64, 0x05, 0xbf,
  0xd6, 0x37, 0xcd, 0xbd, 0x00, 0x43, 0x76, 0xbd, 0x16, 0xa7, 0x0f, 0x3e,
  0xab, 0x2c, 0xa4, 0xbf, 0x40, 0xb2, 0x38, 0xbe, 0x1e, 0x4e, 0xe4, 0xbf,
  0x40, 0xb2, 0x38, 0xbe, 0xa0, 0x7a, 0xd7, 0xbe, 0xab, 0x2c, 0x24, 0x3e,
  0x63, 0x16, 0x8d, 0xbf, 0xab, 0x2c, 0x24, 0x3d, 0x00, 0x00, 0x00, 0x00,
  0x00, 0x43, 0x76, 0x3d, 0xab, 0x2c, 0x24, 0x3d, 0xd6, 0x37, 0x4d, 0x3e,
  0xab, 0x2c, 0xa4, 0xbc, 0x00, 0x43, 0x76, 0xbd, 0xab, 0x2c, 0xa4, 0x3d,
  0xd6, 0x37, 0x4d, 0xbe, 0x23, 0xa7, 0xca, 0xbf, 0xd6, 0x37, 0xcd, 0x3d,
  0xab, 0x2c, 0xa4, 0xbd, 0x00, 0x43, 0xf6, 0x3d, 0x00, 0x43, 0xf6, 0xbe,
  0xa0, 0x7a, 0x57, 0xbf, 0x16, 0xa7, 0x8f, 0xbe, 0x00, 0x43, 0x76, 0x3d,
  0xf8, 0x9b, 0xa1, 0xbf, 0xd6, 0x37, 0xcd, 0xbd, 0xab, 0x2c, 0x24, 0xbf,
  0xab, 0x2c, 0xa4, 0x3d, 0x76, 0x6f, 0x2e, 0xbf, 0x16, 0xa7, 0x0f, 0xbf,
  0x6b, 0xbd, 0xe1, 0xbe, 0xe8, 0x90, 0xee, 0xbf, 0x00, 0x00, 0x00, 0x00,
  0x16, 0xa7, 0x0f, 0xbf, 0x00, 0x43, 0x76, 0x3e, 0x6b, 0xbd, 0x61, 0xbe,
  0xab, 0x2c, 0xa4, 0x3c, 0x16, 0xa7, 0x0f, 0xbe, 0x00, 0x43, 0x76, 0xbf,
  0xe6, 0x42, 0x00, 0x3f, 0x00, 0x00, 0x00, 0x00, 0x00, 0x00, 0x00, 0x00,
  0xab, 0x2c, 0x24, 0x3d, 0x16, 0xa7, 0x0f, 0x3e, 0x00, 0x43, 0xf6, 0x3d,
  0x16, 0xa7, 0x0f, 0xbe, 0xab, 0x2c, 0xa4, 0xbd, 0x16, 0xa7, 0x0f, 0xbf,
  0x16, 0xa7, 0x0f, 0x3e, 0x00, 0x43, 0x76, 0x3d, 0xab, 0x2c, 0xa4, 0xbc,
  0x00, 0x00, 0x00, 0x00, 0xd6, 0x37, 0xcd, 0xbd, 0xab, 0x2c, 0xa4, 0x3c,
  0xab, 0x2c, 0xa4, 0xbc, 0x40, 0xb2, 0x38, 0x3e, 0x00, 0x43, 0x76, 0x3d,
  0xab, 0x2c, 0xa4, 0xbc, 0x10, 0x4e, 0x29, 0xbf, 0xab, 0x2c, 0xa4, 0x3d,
  0x70, 0x16, 0x48, 0xbf, 0x00, 0x43, 0xf6, 0x3d, 0xd0, 0xde, 0x66, 0xbf,
  0xd6, 0x37, 0xcd, 0xbe, 0xab, 0x2c, 0x24, 0x3e, 0xd6, 0x37, 0xcd, 0x3d,
  0xab, 0x2c, 0x24, 0x3e, 0x40, 0xb2, 0x38, 0x3e, 0x16, 0xa7, 0x0f, 0x3e,
  0xd6, 0x37, 0xcd, 0x3d, 0xab, 0x2c, 0x24, 0x3d, 0x06, 0x9c, 0x5c, 0xbf,
  0x00, 0x43, 0xf6, 0x3d, 0xab, 0x2c, 0x24, 0x3d, 0x00, 0x43, 0xf6, 0xbd,
  0x00, 0x43, 0xf6, 0x3d, 0xab, 0x2c, 0xa4, 0xbd, 0xab, 0x2c, 0xa4, 0x3e,
  0x4b, 0x64, 0x85, 0x3e, 0x6b, 0xbd, 0x61, 0x3e, 0xab, 0x2c, 0x24, 0x3e,
  0x0b, 0xf5, 0xc2, 0xbe, 0x40, 0xb2, 0x38, 0xbe, 0xd0, 0xde, 0xe6, 0xbf,
  0xab, 0x2c, 0xa4, 0xbd, 0x00, 0x43, 0x76, 0x3d, 0xab, 0x2c, 0xa4, 0xbc,
  0x63, 0x16, 0x8d, 0xbf, 0xd6, 0x37, 0xcd, 0x3d, 0x00, 0x00, 0x00, 0x00,
  0xd6, 0x37, 0x4d, 0xbe, 0xd6, 0x37, 0xcd, 0x3d, 0x40, 0xb2, 0xb8, 0x3e,
  0xab, 0x2c, 0xa4, 0xbe, 0x0b, 0xf5, 0x42, 0xbf, 0x00, 0x43, 0x76, 0x3e,
  0x7b, 0xc8, 0x14, 0xbf, 0xe0, 0xe9, 0x99, 0xbe, 0x00, 0x43, 0xf6, 0x3d,
  0xab, 0x2c, 0xa4, 0x3d, 0x00, 0x43, 0xf6, 0x3d, 0x9b, 0x21, 0x71, 0xbf,
  0x6b, 0xbd, 0xe1, 0xbe, 0x40, 0xb2, 0xb8, 0xbe, 0x00, 0x43, 0xf6, 0x3d,
  0x10, 0x4e, 0x29, 0xbf, 0xab, 0x2c, 0xa4, 0x3d, 0xe0, 0xe9, 0x99, 0x3e,
  0xab, 0x2c, 0xa4, 0x3d, 0xe0, 0xe9, 0x99, 0xbe, 0xab, 0x2c, 0xa4, 0xbd,
  0xab, 0x2c, 0x24, 0x3d, 0x4b, 0x64, 0x85, 0xbe, 0xd6, 0x37, 0xcd, 0x3d,
  0xab, 0x2c, 0xa4, 0xbe, 0xf3, 0x42, 0xbb, 0xbf, 0x00, 0x43, 0x76, 0x3e,
  0x6b, 0xbd, 0x61, 0x3e, 0xab, 0x2c, 0xa4, 0x3c, 0x00, 0x43, 0xf6, 0x3d,
  0x16, 0xa7, 0x8f, 0xbe, 0x00, 0x43, 0x76, 0x3e, 0x16, 0xa7, 0x0f, 0x3e,
  0xe0, 0xe9, 0x19, 0xbf, 0xab, 0x2c, 0xa4, 0xbc, 0x6b, 0xbd, 0x61, 0x3e,
  0xab, 0x2c, 0x24, 0x3d, 0x40, 0xb2, 0xb8, 0xbe, 0xab, 0x2c, 0xa4, 0x3c,
  0xab, 0x2c, 0xa4, 0x3c, 0xd6, 0x37, 0xcd, 0x3d, 0xab, 0x2c, 0x24, 0xbd,
  0x00, 0x43, 0x76, 0xbd, 0xd6, 0x37, 0xcd, 0xbe, 0x00, 0x43, 0x76, 0x3e,
  0xa0, 0x7a, 0xd7, 0x3e, 0xab, 0x2c, 0x24, 0xbd, 0x40, 0xb2, 0x38, 0x3e,
  0xd0, 0xde, 0x66, 0xbf, 0xb0, 0x85, 0x8a, 0xbf, 0x40, 0xb2, 0x38, 0xbe,
  0xab, 0x2c, 0xa4, 0xbc, 0x0b, 0xf5, 0xc2, 0xbe, 0x16, 0xa7, 0x0f, 0x3e,
  0xd6, 0x37, 0x4d, 0x3e, 0xb0, 0x85, 0x8a, 0xbf, 0xab, 0x2c, 0xa4, 0xbc,
  0x0b, 0xf5, 0xc2, 0xbe, 0xd6, 0x37, 0x4d, 0x3e, 0x0b, 0xf5, 0xc2, 0x3e,
  0x16, 0xa7, 0x0f, 0x3e, 0xab, 0x2c, 0xa4, 0xbd, 0x00, 0x00, 0x00, 0x00,
  0xa0, 0x7a, 0xd7, 0xbe, 0xe6, 0x42, 0x00, 0x3f, 0xab, 0x2c, 0xa4, 0x3c,
  0x7b, 0xc8, 0x14, 0xbf, 0x36, 0x00, 0xec, 0x3e, 0x00, 0x43, 0x76, 0xbe,
  0xab, 0x2c, 0xa4, 0x3d, 0xd6, 0x37, 0xcd, 0xbd, 0x4b, 0x64, 0x85, 0x3e,
  0xab, 0x2c, 0xa4, 0x3d, 0x00, 0x43, 0x76, 0x3e, 0x00, 0x00, 0x00, 0x00,
  0x00, 0x43, 0x76, 0x3d, 0x00, 0x00, 0x00, 0x00, 0xab, 0x2c, 0xa4, 0x3c,
  0xab, 0x2c, 0xa4, 0xbc, 0x00, 0x43, 0xf6, 0x3d, 0xb0, 0x85, 0x0a, 0x3f,
  0xab, 0x2c, 0x24, 0xbf, 0xa0, 0x7a, 0xd7, 0xbe, 0x00, 0x43, 0x76, 0x3d,
  0x00, 0x43, 0x76, 0x3d, 0xab, 0x2c, 0x24, 0x3d, 0xe0, 0xe9, 0x99, 0x3e,
  0x00, 0x43, 0x76, 0xbd, 0xab, 0x2c, 0xa4, 0x3c, 0x40, 0xb2, 0xb8, 0xbe,
  0xd6, 0x37, 0xcd, 0x3d, 0xab, 0x2c, 0x24, 0x3e, 0xd6, 0x37, 0x4d, 0x3e,
  0x06, 0x9c, 0x5c, 0xbf, 0xab, 0x2c, 0x24, 0xbd, 0x36, 0x00, 0x6c, 0xbf,
  0xe6, 0x42, 0x00, 0xbf, 0x16, 0xa7, 0x0f, 0xbe, 0xab, 0x2c, 0xa4, 0xbd,
  0xd6, 0x37, 0xcd, 0xbd, 0x93, 0x7a, 0x9c, 0xbf, 0x0b, 0xf5, 0xc2, 0xbe,
  0xab, 0x2c, 0xa4, 0xbc, 0x00, 0x00, 0x00, 0x00, 0xab, 0x2c, 0xa4, 0xbc,
  0xab, 0x2c, 0xa4, 0x3c, 0x16, 0xa7, 0x0f, 0xbe, 0x76, 0x6f, 0xae, 0x3e,
  0xab, 0x2c, 0x24, 0x3d, 0x00, 0x43, 0xf6, 0xbd, 0xab, 0x2c, 0xa4, 0x3d,
  0xd6, 0x37, 0xcd, 0xbf, 0x00, 0x43, 0x76, 0xbd, 0xab, 0x2c, 0xa4, 0xbc,
  0xab, 0x2c, 0xa4, 0x3c, 0x6b, 0xbd, 0x61, 0x3e, 0xab, 0x2c, 0x24, 0xbe,
  0x7b, 0xc8, 0x14, 0xbf, 0xab, 0x2c, 0x24, 0x3d, 0x16, 0xa7, 0x0f, 0xbe,
  0xd6, 0x37, 0xcd, 0x3d, 0x00, 0x43, 0xf6, 0x3d, 0x4b, 0x64, 0x85, 0xbe,
  0x10, 0x4e, 0xa9, 0xbf, 0x1e, 0x4e, 0xe4, 0xbf, 0x06, 0x9c, 0x5c, 0xbf,
  0x16, 0xa7, 0x0f, 0xbe, 0x00, 0x00, 0x00, 0x00, 0x00, 0x43, 0x76, 0xbd,
  0x00, 0x43, 0x76, 0x3d, 0xd6, 0x37, 0xcd, 0x3d, 0x00, 0x43, 0x76, 0xbd,
  0x36, 0x00, 0x6c, 0xbf, 0xab, 0x2c, 0x24, 0x3d, 0x00, 0x43, 0x76, 0xbd,
  0xab, 0x2c, 0xa4, 0x3c, 0xe6, 0x42, 0x00, 0xbf, 0xd6, 0x37, 0xcd, 0x3d,
  0x70, 0x16, 0x48, 0xbf, 0xab, 0x2c, 0xa4, 0x3d, 0xab, 0x2c, 0xa4, 0x3e,
  0x2e, 0x59, 0x97, 0xbf, 0xe0, 0xe9, 0x99, 0xbf, 0x16, 0xa7, 0x0f, 0xbe,
  0x76, 0x6f, 0xae, 0xbf, 0x6b, 0xbd, 0xe1, 0xbe, 0xab, 0x2c, 0xa4, 0x3d,
  0x6b, 0xbd, 0x61, 0xbf, 0x4b, 0x64, 0x85, 0xbe, 0xab, 0x2c, 0x24, 0x3e,
  0xd6, 0x37, 0xcd, 0xbf, 0x16, 0xa7, 0x0f, 0x3e, 0x6b, 0xbd, 0x61, 0x3e,
  0xab, 0x2c, 0xa4, 0x3c, 0xab, 0x2c, 0xa4, 0x3c, 0xab, 0x2c, 0x24, 0xbd,
  0xa6, 0xd3, 0x3d, 0xbf, 0x70, 0x16, 0x48, 0xbf, 0x40, 0xb2, 0x38, 0x3e,
  0x16, 0xa7, 0x0f, 0x3e, 0xd6, 0x37, 0xcd, 0x3d, 0xab, 0x2c, 0xa4, 0x3d,
  0x6b, 0xbd, 0x61, 0x3e, 0xd6, 0x37, 0xcd, 0xbd, 0x00, 0x00, 0x00, 0x00,
  0x16, 0xa7, 0x8f, 0x3e, 0xa6, 0xd3, 0x3d, 0xbf, 0xab, 0x2c, 0xa4, 0xbc,
  0x23, 0xa7, 0xca, 0xbf, 0xab, 0x2c, 0xa4, 0xbd, 0xab, 0x2c, 0xa4, 0xbe,
  0xd6, 0x37, 0xcd, 0xbd, 0xe0, 0xe9, 0x99, 0xbe, 0xab, 0x2c, 0x24, 0xbe,
  0x4b, 0x64, 0x85, 0xbe, 0xab, 0x2c, 0x24, 0x3e, 0xb0, 0x85, 0x0a, 0xbf,
  0x00, 0x43, 0x76, 0x3d, 0x00, 0x43, 0x76, 0x3d, 0x40, 0xb2, 0x38, 0xbe,
  0xab, 0x2c, 0xa4, 0xbd, 0xab, 0x2c, 0xa4, 0x3d, 0x16, 0xa7, 0x0f, 0xbf,
  0xab, 0x2c, 0xa4, 0xbd, 0x16, 0xa7, 0x0f, 0xbe, 0xab, 0x2c, 0x24, 0x3d,
  0x00, 0x43, 0x76, 0xbd, 0x63, 0x16, 0x8d, 0xbf, 0x16, 0xa7, 0x0f, 0x3e,
  0x16, 0xa7, 0x0f, 0x3e, 0x46, 0x0b, 0x1f, 0xbf, 0xab, 0x2c, 0x24, 0xbd,
  0x6b, 0xbd, 0x61, 0xbe, 0x16, 0xa7, 0x0f, 0x3e, 0xb0, 0x85, 0x0a, 0xbf,
  0xab, 0x2c, 0xa4, 0xbc, 0x4b, 0x64, 0x85, 0xbe, 0x66, 0x64, 0xfb, 0xbf,
  0x00, 0x43, 0xf6, 0x3d, 0x3b, 0x59, 0x52, 0xbf, 0xdb, 0x90, 0x33, 0xbf,
  0x16, 0xa7, 0x0f, 0x3e, 0xab, 0x2c, 0x24, 0xbd, 0xab, 0x2c, 0x24, 0x3d,
  0x00, 0x43, 0x76, 0x3d, 0xab, 0x2c, 0xa4, 0x3c, 0x00, 0x43, 0x76, 0xbd,
  0xd6, 0x37, 0xcd, 0x3d, 0xe0, 0xe9, 0x99, 0x3e, 0x00, 0x43, 0xf6, 0x3d,
  0x00, 0x00, 0x00, 0x00, 0xab, 0x2c, 0x24, 0x3d, 0xd6, 0x37, 0xcd, 0x3d,
  0x6b, 0xbd, 0xe1, 0xbe, 0xd6, 0x37, 0xcd, 0x3e, 0xab, 0x2c, 0x24, 0x3d,
  0xd6, 0x37, 0x4d, 0xbe, 0x00, 0x43, 0x76, 0x3d, 0xd6, 0x37, 0xcd, 0xbd,
  0x00, 0x43, 0x76, 0xbe, 0xd6, 0x37, 0x4d, 0x3e, 0xa0, 0x7a, 0xd7, 0xbe,
  0xab, 0x2c, 0x24, 0x3d, 0xd6, 0x37, 0x4d, 0xbe, 0xab, 0x2c, 0x24, 0x3e,
  0xa0, 0x7a, 0xd7, 0xbe, 0xa0, 0x7a, 0x57, 0xbf, 0xe6, 0x42, 0x80, 0xbf,
  0xab, 0x2c, 0xa4, 0xbd, 0xab, 0x2c, 0xa4, 0xbc, 0x00, 0x43, 0x76, 0x3e,
  0x0b, 0xf5, 0xc2, 0x3e, 0x16, 0xa7, 0x0f, 0x3e, 0xc8, 0x37, 0x92, 0xbf,
  0x6b, 0xbd, 0x61, 0x3e, 0x40, 0xb2, 0x38, 0xbf, 0x00, 0x43, 0xf6, 0xbd,
  0x00, 0x43, 0x76, 0x3d, 0xb0, 0x85, 0x0a, 0xbf, 0xc3, 0xde, 0xab, 0xbf,
  0xa0, 0x7a, 0x57, 0xbf, 0x0b, 0xf5, 0xc2, 0xbe, 0x00, 0x00, 0x00, 0x00,
  0x00, 0x43, 0xf6, 0x3d, 0xf3, 0x42, 0xbb, 0xbf, 0x16, 0xa7, 0x0f, 0x3e,
  0xd6, 0x37, 0xcd, 0x3d, 0xd0, 0xde, 0x66, 0xbf, 0x00, 0x43, 0x76, 0xbe,
  0xab, 0x2c, 0xa4, 0xbc, 0x4b, 0x64, 0x85, 0xbe, 0x76, 0x6f, 0xae, 0xbe,
  0x00, 0x43, 0x76, 0x3d, 0xd6, 0x37, 0xcd, 0xbd, 0x00, 0x00, 0x00, 0x00,
  0x4b, 0x64, 0x85, 0xbe, 0x00, 0x43, 0x76, 0x3d, 0xab, 0x2c, 0xa4, 0xbd,
  0xab, 0x2c, 0xa4, 0xbd, 0xe6, 0x42, 0x00, 0xbf, 0x7b, 0xc8, 0x14, 0x3f,
  0x40, 0xb2, 0x38, 0x3e, 0xab, 0x2c, 0x24, 0x3d, 0xab, 0x2c, 0x24, 0x3e,
  0xd6, 0x37, 0xcd, 0x3e, 0x16, 0xa7, 0x8f, 0xbf, 0xab, 0x2c, 0xa4, 0x3c,
  0xab, 0x2c, 0x24, 0x3e, 0x40, 0xb2, 0xb8, 0x3e, 0x00, 0x43, 0x76, 0x3d,
  0x40, 0xb2, 0x38, 0x3e, 0x00, 0x43, 0x76, 0x3d, 0xc3, 0xde, 0xab, 0xbf,
  0x16, 0xa7, 0x0f, 0xbf, 0xab, 0x2c, 0x24, 0xbe, 0x63, 0x16, 0x8d, 0xbf,
  0x16, 0xa7, 0x0f, 0x3e, 0x10, 0x4e, 0x29, 0xbf, 0xb0, 0x85, 0x8a, 0xbf,
  0x40, 0xb2, 0x38, 0x3e, 0xd6, 0x37, 0xcd, 0x3d, 0x16, 0xa7, 0x0f, 0xbe,
  0xab, 0x2c, 0xa4, 0x3c, 0x7b, 0xc8, 0x94, 0xbf, 0x00, 0x00, 0x00, 0x00,
  0xab, 0x2c, 0xa4, 0x3d, 0xd6, 0x37, 0xcd, 0x3d, 0x6b, 0xbd, 0xe1, 0xbe,
  0xd6, 0x37, 0xcd, 0xbe, 0x00, 0x43, 0x76, 0x3d, 0xd0, 0xde, 0x66, 0xbf,
  0xab, 0x2c, 0x24, 0xbd, 0x00, 0x43, 0x76, 0x3d, 0x0b, 0xf5, 0xc2, 0x3e,
  0x00, 0x00, 0x00, 0x00, 0x4b, 0x64, 0x85, 0xbe, 0x00, 0x00, 0x00, 0x00,
  0x16, 0xa7, 0x0f, 0x3e, 0x00, 0x43, 0xf6, 0xbd, 0x76, 0x6f, 0xae, 0x3e,
  0xa6, 0xd3, 0x3d, 0xbf, 0xd6, 0x37, 0xcd, 0x3d, 0x00, 0x43, 0x76, 0xbd,
  0x00, 0x43, 0x76, 0x3d, 0x16, 0xa7, 0x0f, 0x3e, 0xab, 0x2c, 0xa4, 0xbd,
  0x6b, 0xbd, 0x61, 0x3e, 0x00, 0x43, 0xf6, 0x3d, 0x4b, 0x64, 0x85, 0x3e,
  0xdb, 0x90, 0x33, 0xbf, 0xd6, 0x37, 0xcd, 0xbd, 0xab, 0x2c, 0x24, 0x3e,
  0xab, 0x2c, 0xa4, 0xbc, 0x00, 0x43, 0x76, 0xbd, 0xab, 0x2c, 0x24, 0xbd,
  0xab, 0x2c, 0xa4, 0x3e, 0x76, 0x6f, 0xae, 0xbe, 0xab, 0x2c, 0x24, 0xbe,
  0x00, 0x43, 0x76, 0x3d, 0xf3, 0x42, 0xbb, 0xbf, 0xa6, 0xd3, 0xbd, 0xbf,
  0xab, 0x2c, 0xa4, 0xbd, 0x00, 0x00, 0x00, 0x00, 0x4b, 0x64, 0x85, 0xbf,
  0xe6, 0x42, 0x00, 0xbf, 0x00, 0x43, 0x76, 0x3d, 0xab, 0x2c, 0xa4, 0xbd,
  0xe6, 0x42, 0x00, 0xbf, 0xd6, 0x37, 0xcd, 0xbd, 0x40, 0xb2, 0x38, 0xbe,
  0x00, 0x43, 0xf6, 0xbd, 0x16, 0xa7, 0x8f, 0xbe, 0xfe, 0xf4, 0x87, 0xbf,
  0x00, 0x43, 0x76, 0xbd, 0xab, 0x2c, 0xa4, 0xbd, 0x00, 0x43, 0xf6, 0xbd,
  0x0b, 0xf5, 0xc2, 0x3e, 0x16, 0xa7, 0x0f, 0xbe, 0x00, 0x43, 0xf6, 0x3d,
  0x00, 0x43, 0x76, 0xbf, 0xab, 0x2c, 0x24, 0xbd, 0xab, 0x2c, 0xa4, 0xbe,
  0xd6, 0x37, 0xcd, 0x3d, 0xab, 0x2c, 0xa4, 0xbc, 0x16, 0xa7, 0x8f, 0xbe,
  0x00, 0x43, 0xf6, 0xbd, 0xab, 0x2c, 0xa4, 0x3e, 0x4b, 0x64, 0x85, 0x3e,
  0xd6, 0x37, 0x4d, 0x3e, 0x00, 0x43, 0x76, 0x3d, 0xd6, 0x37, 0xcd, 0x3d,
  0x16, 0xa7, 0x0f, 0xbe, 0x00, 0x00, 0x00, 0x00, 0xd6, 0x37, 0x4d, 0xbe,
  0x40, 0xb2, 0x38, 0x3e, 0x00, 0x00, 0x00, 0x00, 0xab, 0x2c, 0xa4, 0xbe,
  0xab, 0x2c, 0x24, 0x3e, 0xd6, 0x37, 0xcd, 0xbd, 0xa6, 0xd3, 0x3d, 0xbf,
  0xd6, 0x37, 0xcd, 0xbd, 0xab, 0x2c, 0x24, 0x3e, 0x76, 0x6f, 0xae, 0xbe,
  0xd6, 0x37, 0xcd, 0xbe, 0xe0, 0xe9, 0x99, 0xbf, 0x3b, 0x59, 0x52, 0xbf,
  0x16, 0xa7, 0x0f, 0xbe, 0xd6, 0x37, 0x4d, 0xbe, 0xab, 0x2c, 0xa4, 0xbc,
  0xab, 0x2c, 0xa4, 0xbc, 0xab, 0x2c, 0x24, 0xbd, 0xab, 0x2c, 0x24, 0x3e,
  0x6b, 0xbd, 0x61, 0x3e, 0xb0, 0x85, 0x8a, 0xbf, 0x6b, 0xbd, 0x61, 0xbf,
  0xd6, 0x37, 0xcd, 0x3d, 0xdb, 0x90, 0x33, 0xbf, 0xab, 0x2c, 0xa4, 0x3d,
  0xdb, 0x90, 0xb3, 0xbf, 0x6b, 0xbd, 0xe1, 0xbe, 0xd6, 0x37, 0xcd, 0x3d,
  0xd6, 0x37, 0xcd, 0x3d, 0x7b, 0xc8, 0x94, 0xbf, 0xab, 0x2c, 0xa4, 0xbf,
  0x10, 0x4e, 0x29, 0xbf, 0x16, 0xa7, 0x0f, 0xbf, 0x16, 0xa7, 0x0f, 0xbe,
  0x7b, 0xc8, 0x94, 0xbf, 0x16, 0xa7, 0x0f, 0xbe, 0xab, 0x2c, 0xa4, 0xbc,
  0x00, 0x43, 0xf6, 0xbd, 0xf8, 0x9b, 0xa1, 0xbf, 0xd6, 0x37, 0x4d, 0x3e,
  0xab, 0x2c, 0x24, 0x3d, 0x16, 0xa7, 0x8f, 0xbe, 0x16, 0xa7, 0x0f, 0x3e,
  0x16, 0xa7, 0x0f, 0x3e, 0x00, 0x43, 0x76, 0x3d, 0xab, 0x2c, 0xa4, 0xbc,
  0xab, 0x2c, 0x24, 0x3d, 0x40, 0xb2, 0x38, 0xbf, 0x4b, 0x64, 0x05, 0xbf,
  0xab, 0x2c, 0xa4, 0x3c, 0x6b, 0xbd, 0xe1, 0xbe, 0x16, 0xa7, 0x0f, 0xbf,
  0xdb, 0x90, 0xb3, 0xbf, 0x16, 0xa7, 0x0f, 0xbe, 0xab, 0x2c, 0x24, 0x3e,
  0xd6, 0x37, 0xcd, 0xbe, 0x16, 0xa7, 0x0f, 0xbe, 0x16, 0xa7, 0x0f, 0x3e,
  0xab, 0x2c, 0xa4, 0xbd, 0xa0, 0x7a, 0x57, 0xbf, 0xab, 0x2c, 0x24, 0xbd,
  0xa6, 0xd3, 0x3d, 0xbf, 0xe6, 0x42, 0x00, 0xbf, 0x63, 0x16, 0x8d, 0xbf,
  0x16, 0xa7, 0x0f, 0x3e, 0x00, 0x43, 0xf6, 0x3d, 0x70, 0x16, 0x48, 0xbf,
  0xd6, 0x37, 0xcd, 0x3d, 0x00, 0x43, 0x76, 0x3d, 0xe0, 0xe9, 0x19, 0xbf,
  0xab, 0x2c, 0x24, 0xbd, 0xe6, 0x42, 0x00, 0xbf, 0x7b, 0xc8, 0x14, 0xbf,
  0x7b, 0xc8, 0x94, 0xbf, 0x66, 0x64, 0x7b, 0xbf, 0x6b, 0xbd, 0x61, 0xbe,
  0xab, 0x2c, 0xa4, 0x3d, 0x00, 0x43, 0xf6, 0xbe, 0x00, 0x43, 0xf6, 0x3d,
  0x7b, 0xc8, 0x94, 0xbf, 0xab, 0x2c, 0xa4, 0x3c, 0xab, 0x2c, 0x24, 0x3d,
  0xb8, 0x2c, 0xdf, 0xbf, 0x6b, 0xbd, 0x61, 0xbf, 0x40, 0xb2, 0xb8, 0xbe,
  0x4b, 0x64, 0x85, 0xbf, 0x00, 0x43, 0x76, 0x3d, 0xab, 0x2c, 0xa4, 0xbc,
  0xab, 0x2c, 0xa4, 0xbd, 0xab, 0x2c, 0x24, 0xbd, 0x00, 0x43, 0xf6, 0xbe,
  0x8e, 0x21, 0xb6, 0xbf, 0x16, 0xa7, 0x0f, 0x3e, 0x00, 0x43, 0xf6, 0xbd,
  0x00, 0x43, 0x76, 0x3d, 0x0b, 0xf5, 0xc2, 0x3e, 0x00, 0x43, 0x76, 0x3d,
  0xa0, 0x7a, 0xd7, 0xbe, 0xab, 0x2c, 0xa4, 0x3d, 0xab, 0x2c, 0xa4, 0xbc,
  0xa6, 0xd3, 0x3d, 0xbf, 0x00, 0x43, 0x76, 0x3e, 0xd6, 0x37, 0xcd, 0x3d,
  0xd6, 0x37, 0xcd, 0xbe, 0xb0, 0x85, 0x0a, 0xbf, 0x10, 0x4e, 0xa9, 0xbf,
  0xab, 0x2c, 0x24, 0x3d, 0x76, 0x6f, 0xae, 0x3e, 0x00, 0x43, 0x76, 0x3d,
  0xe6, 0x42, 0x80, 0xbf, 0x7b, 0xc8, 0x94, 0xbf, 0xab, 0x2c, 0x24, 0x3d,
  0x16, 0xa7, 0x0f, 0x3e, 0x00, 0x43, 0x76, 0x3d, 0x00, 0x00, 0x00, 0x00,
  0xd6, 0x37, 0xcd, 0x3d, 0xa0, 0x7a, 0x57, 0xbf, 0xab, 0x2c, 0x24, 0x3e,
  0x93, 0x7a, 0x9c, 0xbf, 0x16, 0xa7, 0x0f, 0x3e, 0xab, 0x2c, 0xa4, 0xbc,
  0x8e, 0x21, 0xb6, 0xbf, 0x9b, 0x21, 0x71, 0xbf, 0xab, 0x2c, 0xa4, 0x3d,
  0xab, 0x2c, 0xa4, 0x3d, 0xab, 0x2c, 0xa4, 0x3d, 0xd6, 0x37, 0xcd, 0x3d,
  0xab, 0x2c, 0xa4, 0xbd, 0x16, 0xa7, 0x0f, 0xbe, 0x16, 0xa7, 0x8f, 0xbe,
  0x00, 0x43, 0xf6, 0xbd, 0xd6, 0x37, 0xcd, 0x3d, 0xab, 0x2c, 0xa4, 0x3c,
  0x16, 0xa7, 0x0f, 0x3e, 0x0b, 0xf5, 0xc2, 0xbe, 0xab, 0x2c, 0xa4, 0x3d,
  0x6b, 0xbd, 0x61, 0x3e, 0xab, 0x2c, 0xa4, 0x3d, 0xab, 0x2c, 0xa4, 0x3c,
  0x16, 0xa7, 0x0f, 0x3e, 0xab, 0x2c, 0x24, 0x3d, 0x4b, 0x64, 0x05, 0xbf,
  0x6b, 0xbd, 0xe1, 0xbe, 0xab, 0x2c, 0x24, 0x3e, 0x0b, 0xf5, 0xc2, 0xbe,
  0x00, 0x43, 0xf6, 0x3d, 0xab, 0x2c, 0x24, 0x3e, 0xd6, 0x37, 0xcd, 0x3d,
  0x10, 0x4e, 0x29, 0x3f, 0xd6, 0x37, 0x4d, 0xbe, 0xa0, 0x7a, 0xd7, 0x3e,
  0xab, 0x2c, 0x24, 0x3e, 0xd6, 0x37, 0xcd, 0x3d, 0xab, 0x2c, 0x24, 0xbd,
  0x76, 0x6f, 0x2e, 0xbf, 0xab, 0x2c, 0x24, 0x3d, 0x00, 0x43, 0x76, 0xbd,
  0x6b, 0xbd, 0x61, 0x3e, 0xe0, 0xe9, 0x99, 0xbe, 0x40, 0xb2, 0xb8, 0x3e,
  0xab, 0x2c, 0xa4, 0xbc, 0x4b, 0x64, 0x85, 0xbe, 0xe6, 0x42, 0x00, 0x3f,
  0xab, 0x2c, 0x24, 0xbd, 0x00, 0x43, 0x76, 0x3d, 0xab, 0x2c, 0x24, 0xbd,
  0x4b, 0x64, 0x85, 0x3e, 0xd6, 0x37, 0x4d, 0xbe, 0x4b, 0x64, 0x85, 0x3e,
  0xa0, 0x7a, 0xd7, 0x3e, 0xab, 0x2c, 0x24, 0xbd, 0x40, 0xb2, 0xb8, 0xbe,
  0xab, 0x2c, 0xa4, 0x3e, 0x00, 0x00, 0x00, 0x00, 0x40, 0xb2, 0x38, 0x3e,
  0xd6, 0x37, 0x4d, 0x3e, 0xa0, 0x7a, 0xd7, 0xbe, 0x40, 0xb2, 0x38, 0x3e,
  0xab, 0x2c, 0x24, 0x3e, 0xab, 0x2c, 0x24, 0x3e, 0x00, 0x43, 0xf6, 0x3d,
  0x76, 0x6f, 0xae, 0xbe, 0xab, 0x2c, 0x24, 0x3d, 0xab, 0x2c, 0xa4, 0x3d,
  0xab, 0x2c, 0xa4, 0x3d, 0xd6, 0x37, 0xcd, 0x3d, 0x4b, 0x64, 0x05, 0x3f,
  0xab, 0x2c, 0xa4, 0x3c, 0x00, 0x43, 0x76, 0xbe, 0xab, 0x2c, 0x24, 0xbd,
  0xab, 0x2c, 0x24, 0x3e, 0xab, 0x2c, 0x24, 0xbe, 0xab, 0x2c, 0xa4, 0xbc,
  0x4b, 0x64, 0x85, 0x3e, 0xab, 0x2c, 0x24, 0x3d, 0xab, 0x2c, 0x24, 0x3d,
  0x00, 0x43, 0x76, 0xbd, 0xbe, 0x85, 0xc5, 0xbf, 0xab, 0x2c, 0x24, 0x3d,
  0x83, 0x6f, 0xe9, 0xbf, 0xab, 0x2c, 0xa4, 0xbd, 0x10, 0x4e, 0xa9, 0xbf,
  0xd6, 0x37, 0xcd, 0x3d, 0xab, 0x2c, 0x24, 0xbf, 0xd6, 0x37, 0xcd, 0xbd,
  0xd6, 0x37, 0x4d, 0xbe, 0x40, 0xb2, 0x38, 0x3e, 0x6b, 0xbd, 0xe1, 0xbe,
  0x00, 0x00, 0x00, 0x00, 0xd6, 0x37, 0xcd, 0x3d, 0xd6, 0x37, 0xcd, 0x3d,
  0x00, 0x43, 0x76, 0x3d, 0xe6, 0x42, 0x80, 0xbf, 0xc8, 0x37, 0x92, 0xbf,
  0xab, 0x2c, 0xa4, 0x3d, 0x00, 0x43, 0xf6, 0xbd, 0x00, 0x00, 0x00, 0x00,
  0x9b, 0x21, 0x71, 0xbf, 0x00, 0x43, 0x76, 0xbf, 0x00, 0x43, 0x76, 0x3d,
  0x16, 0xa7, 0x8f, 0x3e, 0xa6, 0xd3, 0xbd, 0xbf, 0x16, 0xa7, 0x8f, 0xbe,
  0xa0, 0x7a, 0xd7, 0xbe, 0xab, 0x2c, 0x24, 0xbd, 0xdb, 0x90, 0x33, 0xbf,
  0x76, 0x6f, 0xae, 0xbe, 0x4b, 0x64, 0x05, 0xbf, 0x98, 0xd3, 0x02, 0xc0,
  0x00, 0x43, 0x76, 0xbd, 0xa6, 0xd3, 0x3d, 0xbf, 0x00, 0x00, 0x00, 0x00,
  0xd6, 0x37, 0xcd, 0xbd, 0xab, 0x2c, 0xa4, 0xbd, 0x00, 0x00, 0x00, 0x00,
  0x6b, 0xbd, 0x61, 0x3e, 0x6b, 0xbd, 0x61, 0x3e, 0x00, 0x43, 0xf6, 0xbd,
  0xab, 0x2c, 0x24, 0xbd, 0xab, 0x2c, 0xa4, 0x3d, 0xab, 0x2c, 0xa4, 0x3c,
  0x00, 0x00, 0x00, 0x00, 0xab, 0x2c, 0xa4, 0xbc, 0x00, 0x43, 0xf6, 0x3d,
  0xe0, 0xe9, 0x19, 0xbf, 0xe0, 0xe9, 0x99, 0x3e, 0x00, 0x00, 0x00, 0x00,
  0xab, 0x2c, 0xa4, 0xbc, 0xd6, 0x37, 0xcd, 0x3d, 0xab, 0x2c, 0x24, 0xbd,
  0x00, 0x43, 0x76, 0xbd, 0xe0, 0xe9, 0x99, 0x3e, 0x00, 0x00, 0x00, 0x00,
  0x00, 0x43, 0xf6, 0xbe, 0x40, 0xb2, 0x38, 0xbe, 0xab, 0x2c, 0x24, 0x3d,
  0xd6, 0x37, 0xcd, 0x3d, 0xab, 0x2c, 0xa4, 0x3c, 0x16, 0xa7, 0x0f, 0x3e,
  0x40, 0xb2, 0x38, 0x3e, 0xa0, 0x7a, 0x57, 0xbf, 0x00, 0x43, 0x76, 0x3d,
  0x46, 0x0b, 0x9f, 0xbf, 0x40, 0xb2, 0x38, 0x3e, 0x16, 0xa7, 0x0f, 0x3e,
  0xab, 0x2c, 0x24, 0xbd, 0x6b, 0xbd, 0x61, 0x3e, 0x00, 0x00, 0x00, 0x00,
  0x76, 0x6f, 0xae, 0xbe, 0x40, 0xb2, 0x38, 0x3e, 0x40, 0xb2, 0xb8, 0x3e,
  0xa0, 0x7a, 0x57, 0xbf, 0x00, 0x43, 0x76, 0xbd, 0x0b, 0xf5, 0xc2, 0xbe,
  0x10, 0x4e, 0x29, 0xbf, 0x40, 0xb2, 0xb8, 0xbe, 0x16, 0xa7, 0x0f, 0x3e,
  0xab, 0x2c, 0xa4, 0xbd, 0x00, 0x43, 0x76, 0xbd, 0xd6, 0x37, 0xcd, 0xbe,
  0xd6, 0x37, 0xcd, 0xbd, 0x00, 0x43, 0xf6, 0xbd, 0x00, 0x43, 0x76, 0x3e,
  0x19, 0xf5, 0xfd, 0xbf, 0xab, 0x2c, 0x24, 0xbf, 0x00, 0x43, 0x76, 0xbe,
  0xab, 0x2c, 0xa4, 0xbc, 0xab, 0x2c, 0xa4, 0x3e, 0x0b, 0xf5, 0xc2, 0xbe,
  0x16, 0xa7, 0x0f, 0x3e, 0xab, 0x2c, 0xa4, 0xbc, 0xab, 0x2c, 0x24, 0xbe,
  0x00, 0x43, 0x76, 0x3d, 0x0b, 0xf5, 0xc2, 0xbf, 0xab, 0x2c, 0xa4, 0x3d,
  0xab, 0x2c, 0xa4, 0x3c, 0x40, 0xb2, 0x38, 0x3e, 0xd6, 0x37, 0x4d, 0x3e,
  0x00, 0x00, 0x00, 0x00, 0xd6, 0x37, 0xcd, 0x3d, 0x3b, 0x59, 0xd2, 0xbf,
  0xd6, 0x37, 0xcd, 0x3d, 0xab, 0x2c, 0x24, 0x3d, 0xab, 0x2c, 0x24, 0x3d,
  0x36, 0x00, 0xec, 0xbe, 0xa0, 0x7a, 0x57, 0xbf, 0xe0, 0xe9, 0x19, 0xbf,
  0xdb, 0x90, 0xb3, 0xbf, 0x16, 0xa7, 0x8f, 0x3e, 0xab, 0x2c, 0xa4, 0xbf,
  0x9b, 0x21, 0x71, 0xbf, 0xab, 0x2c, 0xa4, 0xbe, 0xe0, 0xe9, 0x99, 0x3e,
  0xab, 0x2c, 0x24, 0xbf, 0x00, 0x00, 0x00, 0x00, 0xab, 0x2c, 0x24, 0x3d,
  0xd6, 0x37, 0x4d, 0x3e, 0x00, 0x43, 0x76, 0xbe, 0x16, 0xa7, 0x0f, 0xbe,
  0xab, 0x2c, 0xa4, 0x3d, 0x46, 0x0b, 0x1f, 0xbf, 0xab, 0x2c, 0xa4, 0x3c,
  0xd6, 0x37, 0x4d, 0xbe, 0x00, 0x00, 0x00, 0x00, 0x76, 0x6f, 0xae, 0xbe,
  0xab, 0x2c, 0x24, 0x3d, 0x36, 0x00, 0xec, 0xbf, 0xab, 0x2c, 0xa4, 0x3c,
  0x6b, 0xbd, 0x61, 0xbe, 0xab, 0x2c, 0x24, 0xbd, 0xe0, 0xe9, 0x19, 0xbf,
  0x00, 0x43, 0xf6, 0x3d, 0xab, 0x2c, 0xa4, 0x3c, 0x3b, 0x59, 0x52, 0xbf,
  0xab, 0x2c, 0x24, 0x3d, 0xab, 0x2c, 0x24, 0x3d, 0x00, 0x43, 0x76, 0xbf,
  0xd6, 0x37, 0x4d, 0xbe, 0x00, 0x43, 0x76, 0xbe, 0x6b, 0xbd, 0xe1, 0xbe,
  0x6b, 0xbd, 0x61, 0x3e, 0xab, 0x2c, 0x24, 0xbd, 0xab, 0x2c, 0xa4, 0x3c,
  0x0b, 0xf5, 0x42, 0xbf, 0xe6, 0x42, 0x00, 0xbf, 0xd6, 0x37, 0xcd, 0xbd,
  0x00, 0x43, 0x76, 0x3e, 0x16, 0xa7, 0x0f, 0x3e, 0xb0, 0x85, 0x0a, 0xbf,
  0xab, 0x2c, 0x24, 0x3d, 0xe0, 0xe9, 0x19, 0x3f, 0xa6, 0xd3, 0xbd, 0x3f,
  0x76, 0x6f, 0xae, 0xbf, 0xd6, 0x37, 0xcd, 0x3e, 0x16, 0xa7, 0x0f, 0xbe,
  0x4b, 0x64, 0x85, 0xbe, 0x00, 0x00, 0x00, 0x00, 0x00, 0x43, 0xf6, 0x3d,
  0xab, 0x2c, 0x24, 0x3d, 0xab, 0x2c, 0xa4, 0xbd, 0x40, 0xb2, 0xb8, 0xbe,
  0x00, 0x43, 0xf6, 0x3d, 0xd6, 0x37, 0xcd, 0x3d, 0x00, 0x00, 0x00, 0x00,
  0xab, 0x2c, 0xa4, 0xbc, 0x00, 0x43, 0x76, 0x3d, 0x00, 0x00, 0x00, 0x00,
  0x36, 0x00, 0xec, 0x3e, 0x4b, 0x64, 0x85, 0x3e, 0x00, 0x43, 0x76, 0xbe,
  0xd6, 0x37, 0xcd, 0xbe, 0x3f, 0x8b, 0x01, 0xc0, 0xd6, 0x37, 0xcd, 0x3d,
  0x40, 0xb2, 0xb8, 0xbe, 0xe0, 0xe9, 0x99, 0xbe, 0xab, 0x2c, 0x24, 0xbf,
  0xab, 0x2c, 0x24, 0xbd, 0xab, 0x2c, 0xa4, 0x3d, 0x00, 0x43, 0x76, 0xbe,
  0xab, 0x2c, 0xa4, 0x3d, 0xab, 0x2c, 0xa4, 0x3c, 0x00, 0x43, 0x76, 0x3d,
  0xab, 0x2c, 0xa4, 0x3e, 0xab, 0x2c, 0xa4, 0x3c, 0xab, 0x2c, 0xa4, 0x3d,
  0xab, 0x2c, 0xa4, 0x3e, 0xab, 0x2c, 0xa4, 0xbc, 0xab, 0x2c, 0xa4, 0xbd,
  0x06, 0x9c, 0x5c, 0xbf, 0x4b, 0x64, 0x05, 0x3f, 0xab, 0x2c, 0x24, 0xbd,
  0x16, 0xa7, 0x0f, 0x3f, 0xab, 0x2c, 0xa4, 0x3c, 0x40, 0xb2, 0x38, 0x3e,
  0x40, 0xb2, 0x38, 0x3e, 0x00, 0x00, 0x00, 0x00, 0x00, 0x43, 0xf6, 0xbd,
  0xe0, 0xe9, 0x99, 0x3e, 0xab, 0x2c, 0xa4, 0x3d, 0xab, 0x2c, 0xa4, 0x3e,
  0x00, 0x43, 0xf6, 0x3d, 0xab, 0x2c, 0x24, 0xbe, 0xd6, 0x37, 0xcd, 0xbd,
  0xd6, 0x37, 0xcd, 0x3d, 0xab, 0x2c, 0x24, 0x3d, 0xe6, 0x42, 0x00, 0x3f,
  0xab, 0x2c, 0xa4, 0x3c, 0xab, 0x2c, 0x24, 0xbd, 0x00, 0x43, 0xf6, 0xbd,
  0xd6, 0x37, 0xcd, 0x3d, 0x40, 0xb2, 0x38, 0x3e, 0xab, 0x2c, 0x24, 0x3e,
  0xab, 0x2c, 0x24, 0x3e, 0xe0, 0xe9, 0x99, 0x3e, 0x00, 0x00, 0x00, 0x00,
  0xd6, 0x37, 0xcd, 0x3e, 0xd6, 0x37, 0xcd, 0x3d, 0x00, 0x43, 0x76, 0x3d,
  0xab, 0x2c, 0x24, 0x3e, 0xe0, 0xe9, 0x99, 0xbe, 0x76, 0x6f, 0xae, 0x3e,
  0xd6, 0x37, 0x4d, 0xbe, 0xab, 0x2c, 0x24, 0x3d, 0x6b, 0xbd, 0xe1, 0x3e,
  0x00, 0x00, 0x00, 0x00, 0x00, 0x43, 0x76, 0x3d, 0xab, 0x2c, 0xa4, 0xbc,
  0xd6, 0x37, 0x4d, 0x3e, 0x40, 0xb2, 0x38, 0x3e, 0xab, 0x2c, 0xa4, 0x3c,
  0x00, 0x43, 0xf6, 0xbd, 0xab, 0x2c, 0x24, 0x3e, 0xd6, 0x37, 0x4d, 0xbe,
  0x70, 0x16, 0x48, 0xbf, 0x40, 0xb2, 0x38, 0x3e, 0x00, 0x43, 0xf6, 0x3d,
  0x40, 0xb2, 0x38, 0x3e, 0xab, 0x2c, 0xa4, 0x3d, 0xab, 0x2c, 0xa4, 0xbc,
  0xab, 0x2c, 0xa4, 0x3d, 0xab, 0x2c, 0xa4, 0x3c, 0xab, 0x2c, 0xa4, 0xbd,
  0xd6, 0x37, 0xcd, 0x3d, 0x0b, 0xf5, 0xc2, 0x3e, 0x6b, 0xbd, 0xe1, 0xbe,
  0x00, 0x43, 0x76, 0x3d, 0x40, 0xb2, 0x38, 0x3e, 0xe6, 0x42, 0x80, 0xbf,
  0xab, 0x2c, 0xa4, 0xbd, 0x00, 0x00, 0x00, 0x00, 0x00, 0x43, 0xf6, 0xbd,
  0xa6, 0xd3, 0x3d, 0xbf, 0x00, 0x43, 0x76, 0xbf, 0xab, 0x2c, 0x24, 0x3d,
  0x16, 0xa7, 0x0f, 0x3e, 0x00, 0x43, 0x76, 0x3d, 0x16, 0xa7, 0x8f, 0xbe,
  0x6b, 0xbd, 0x61, 0x3e, 0xab, 0x2c, 0x24, 0x3d, 0xab, 0x2c, 0xa4, 0x3c,
  0x0b, 0xf5, 0xc2, 0xbe, 0xab, 0x2c, 0xa4, 0x3d, 0xb0, 0x85, 0x0a, 0xbf,
  0x40, 0xb2, 0x38, 0x3e, 0x6b, 0xbd, 0xe1, 0xbe, 0xab, 0x2c, 0xa4, 0x3d,
  0xab, 0x2c, 0xa4, 0x3d, 0xd6, 0x37, 0xcd, 0x3d, 0x00, 0x43, 0xf6, 0xbe,
  0xd6, 0x37, 0x4d, 0xbe, 0xab, 0x2c, 0x24, 0xbe, 0xd6, 0x37, 0xcd, 0x3d,
  0xab, 0x2c, 0x24, 0xbd, 0x40, 0xb2, 0x38, 0x3e, 0x40, 0xb2, 0x38, 0xbe,
  0xdb, 0x90, 0x33, 0xbf, 0x28, 0x00, 0xb1, 0xbf, 0xab, 0x2c, 0xa4, 0x3d,
  0x0b, 0xf5, 0xc2, 0x3e, 0x00, 0x43, 0x76, 0xbd, 0xab, 0x2c, 0xa4, 0xbc,
  0xab, 0x2c, 0xa4, 0x3c, 0x6b, 0xbd, 0x61, 0x3e, 0xd6, 0x37, 0x4d, 0x3e,
  0x00, 0x00, 0x00, 0x00, 0x40, 0xb2, 0x38, 0x3e, 0xd6, 0x37, 0xcd, 0x3d,
  0x00, 0x43, 0xf6, 0x3d, 0xab, 0x2c, 0xa4, 0xbd, 0xf8, 0x9b, 0xa1, 0xbf,
  0xab, 0x2c, 0xa4, 0x3c, 0x9b, 0x21, 0x71, 0xbf, 0xab, 0x2c, 0xa4, 0xbf,
  0xa6, 0xd3, 0x3d, 0xbf, 0xe0, 0xe9, 0x99, 0xbe, 0xab, 0x2c, 0xa4, 0xbe,
  0xab, 0x2c, 0xa4, 0xbd, 0x40, 0xb2, 0xb8, 0xbe, 0x7b, 0xc8, 0x14, 0xbf,
  0xab, 0x2c, 0xa4, 0x3d, 0x4b, 0x64, 0x05, 0x3f, 0xe6, 0x42, 0x00, 0xbf,
  0xab, 0x2c, 0x24, 0x3e, 0xab, 0x2c, 0xa4, 0x3c, 0x16, 0xa7, 0x8f, 0x3e,
  0xab, 0x2c, 0x24, 0x3e, 0xd6, 0x37, 0x4d, 0xbe, 0xab, 0x2c, 0x24, 0x3e,
  0x06, 0x9c, 0x5c, 0xbf, 0xab, 0x2c, 0xa4, 0x3c, 0x9b, 0x21, 0x71, 0xbf,
  0xab, 0x2c, 0x24, 0xbf, 0xd6, 0x37, 0xcd, 0x3d, 0x0b, 0xf5, 0xc2, 0xbe,
  0x00, 0x43, 0x76, 0xbe, 0xf8, 0x9b, 0xa1, 0xbf, 0x36, 0x00, 0xec, 0xbe,
  0xab, 0x2c, 0xa4, 0xbc, 0x00, 0x00, 0x00, 0x00, 0xab, 0x2c, 0x24, 0x3d,
  0x00, 0x43, 0x76, 0xbd, 0x16, 0xa7, 0x8f, 0xbe, 0x6b, 0xbd, 0xe1, 0x3e,
  0x4b, 0x64, 0x85, 0xbe, 0x6b, 0xbd, 0x61, 0xbe, 0x00, 0x00, 0x00, 0x00,
  0xab, 0x2c, 0xa4, 0xbd, 0x00, 0x00, 0x00, 0x00, 0x76, 0x6f, 0xae, 0x3e,
  0x00, 0x43, 0x76, 0x3d, 0x16, 0xa7, 0x0f, 0x3e, 0xab, 0x2c, 0x24, 0x3d,
  0x0b, 0xf5, 0x42, 0xbf, 0xd6, 0x37, 0x4d, 0xbe, 0x40, 0xb2, 0x38, 0x3e,
  0xab, 0x2c, 0xa4, 0x3d, 0xab, 0x2c, 0xa4, 0x3d, 0xab, 0x2c, 0xa4, 0xbc,
  0xc8, 0x37, 0x92, 0xbf, 0x19, 0xf5, 0xfd, 0xbf, 0x66, 0x64, 0x7b, 0xbf,
  0xab, 0x2c, 0x24, 0xbd, 0xab, 0x2c, 0xa4, 0xbc, 0xab, 0x2c, 0xa4, 0x3e,
  0xab, 0x2c, 0xa4, 0x3c, 0xab, 0x2c, 0x24, 0xbd, 0xab, 0x2c, 0x24, 0xbe,
  0xe0, 0xe9, 0x99, 0xbe, 0x00, 0x43, 0x76, 0x3d, 0x00, 0x00, 0x00, 0x00,
  0xab, 0x2c, 0xa4, 0xbd, 0x00, 0x43, 0x76, 0xbd, 0xd6, 0x37, 0x4d, 0xbe,
  0x16, 0xa7, 0x0f, 0xbf, 0xab, 0x2c, 0x24, 0x3d, 0x4b, 0x64, 0x85, 0x3e,
  0xd6, 0x37, 0x4d, 0xbf, 0x16, 0xa7, 0x0f, 0xbf, 0x40, 0xb2, 0x38, 0xbe,
  0x63, 0x16, 0x8d, 0xbf, 0x0b, 0xf5, 0x42, 0xbf, 0xab, 0x2c, 0x24, 0xbd,
  0x2e, 0x59, 0x97, 0xbf, 0xab, 0x2c, 0x24, 0x3d, 0x6b, 0xbd, 0x61, 0xbf,
  0xab, 0x2c, 0xa4, 0x3c, 0xd6, 0x37, 0xcd, 0x3d, 0x00, 0x43, 0x76, 0x3e,
  0xab, 0x2c, 0xa4, 0x3c, 0xab, 0x2c, 0xa4, 0x3d, 0xd6, 0x37, 0xcd, 0x3d,
  0x36, 0x00, 0xec, 0xbe, 0x0b, 0xf5, 0x42, 0xbf, 0x36, 0x00, 0xec, 0xbe,
  0x00, 0x43, 0x76, 0xbf, 0xab, 0x2c, 0x24, 0xbf, 0xd6, 0x37, 0x4d, 0xbe,
  0x00, 0x43, 0xf6, 0x3d, 0x10, 0x4e, 0xa9, 0xbf, 0x16, 0xa7, 0x0f, 0x3e,
  0xab, 0x2c, 0xa4, 0xbc, 0x00, 0x43, 0xf6, 0x3d, 0x00, 0x43, 0x76, 0xbe,
  0xab, 0x2c, 0xa4, 0x3d, 0x63, 0x16, 0x8d, 0xbf, 0xf8, 0x9b, 0xa1, 0xbf,
  0xc8, 0x37, 0x92, 0xbf, 0x00, 0x43, 0xf6, 0xbd, 0xab, 0x2c, 0xa4, 0xbc,
  0x7b, 0xc8, 0x94, 0xbf, 0x00, 0x43, 0xf6, 0x3d, 0xd0, 0xde, 0x66, 0xbf,
  0x00, 0x43, 0x76, 0x3d, 0x00, 0x00, 0x00, 0x00, 0x40, 0xb2, 0xb8, 0xbf,
  0x06, 0x9c, 0x5c, 0xbf, 0x4b, 0x64, 0x85, 0xbe, 0x66, 0x64, 0x7b, 0xbf,
  0x00, 0x43, 0x76, 0xbd, 0xab, 0x2c, 0xa4, 0x3d, 0x00, 0x43, 0x76, 0x3d,
  0x40, 0xb2, 0x38, 0xbe, 0x40, 0xb2, 0x38, 0xbf, 0x58, 0x64, 0xc0, 0xbf,
  0x00, 0x43, 0xf6, 0x3d, 0x16, 0xa7, 0x8f, 0xbe, 0xab, 0x2c, 0xa4, 0x3c,
  0xb0, 0x85, 0x0a, 0x3f, 0xab, 0x2c, 0xa4, 0xbc, 0x00, 0x43, 0x76, 0x3e,
  0xd6, 0x37, 0xcd, 0x3d, 0xab, 0x2c, 0xa4, 0x3c, 0xab, 0x2c, 0xa4, 0x3d,
  0x00, 0x43, 0x76, 0x3d, 0xab, 0x2c, 0xa4, 0x3c, 0xab, 0x2c, 0x24, 0xbf,
  0x3b, 0x59, 0x52, 0xbf, 0x16, 0xa7, 0x0f, 0xbf, 0x00, 0x43, 0x76, 0x3d,
  0xab, 0x2c, 0x24, 0xbd, 0xab, 0x2c, 0xa4, 0x3d, 0x7b, 0xc8, 0x14, 0xbf,
  0xa0, 0x7a, 0x57, 0xbf, 0xab, 0x2c, 0xa4, 0x3c, 0xab, 0x2c, 0x24, 0x3d,
  0xd6, 0x37, 0xcd, 0x3d, 0xd6, 0x37, 0x4d, 0x3e, 0x16, 0xa7, 0x0f, 0x3e,
  0x3b, 0x59, 0x52, 0xbf, 0xab, 0x2c, 0x24, 0x3e, 0x93, 0x7a, 0x9c, 0xbf,
  0x00, 0x43, 0xf6, 0x3d, 0x00, 0x43, 0x76, 0x3d, 0x6b, 0xbd, 0x61, 0xbf,
  0x63, 0x16, 0x8d, 0xbf, 0x6b, 0xbd, 0x61, 0xbe, 0xd6, 0x37, 0xcd, 0x3d,
  0x3b, 0x59, 0x52, 0xbf, 0x16, 0xa7, 0x0f, 0x3e, 0xab, 0x2c, 0xa4, 0x3d,
  0xab, 0x2c, 0x24, 0xbd, 0x76, 0x6f, 0xae, 0x3e, 0xab, 0x2c, 0xa4, 0xbc,
  0xab, 0x2c, 0x24, 0x3d, 0xf8, 0x9b, 0xa1, 0xbf, 0xe0, 0xe9, 0x19, 0x3f,
  0x00, 0x00, 0x00, 0x00, 0x40, 0xb2, 0xb8, 0x3e, 0xd6, 0x37, 0xcd, 0x3d,
  0x00, 0x43, 0xf6, 0xbd, 0xab, 0x2c, 0xa4, 0x3d, 0xab, 0x2c, 0xa4, 0xbe,
  0xd6, 0x37, 0x4d, 0xbf, 0xd6, 0x37, 0xcd, 0xbd, 0xab, 0x2c, 0x24, 0xbd,
  0xab, 0x2c, 0xa4, 0x3d, 0x00, 0x43, 0x76, 0x3d, 0x6b, 0xbd, 0x61, 0xbf,
  0x76, 0x6f, 0xae, 0xbe, 0xab, 0x2c, 0x24, 0x3d, 0x16, 0xa7, 0x8f, 0xbe,
  0xe0, 0xe9, 0x99, 0xbe, 0x00, 0x00, 0x00, 0x00, 0x16, 0xa7, 0x0f, 0x3e,
  0xd6, 0x37, 0xcd, 0xbe, 0x6b, 0xbd, 0x61, 0x3e, 0x00, 0x43, 0x76, 0xbd,
  0x16, 0xa7, 0x0f, 0x3e, 0x16, 0xa7, 0x0f, 0xbe, 0x40, 0xb2, 0xb8, 0x3e,
  0xab, 0x2c, 0xa4, 0x3d, 0x16, 0xa7, 0x8f, 0x3e, 0xd6, 0x37, 0xcd, 0x3d,
  0x40, 0xb2, 0xb8, 0x3e, 0x6b, 0xbd, 0x61, 0x3e, 0xab, 0x2c, 0x24, 0xbd,
  0x40, 0xb2, 0x38, 0x3e, 0x3b, 0x59, 0x52, 0xbf, 0xab, 0x2c, 0x24, 0x3d,
  0x6b, 0xbd, 0x61, 0x3e, 0xab, 0x2c, 0x24, 0x3e, 0x40, 0xb2, 0x38, 0x3e,
  0xab, 0x2c, 0x24, 0x3d, 0xab, 0x2c, 0x24, 0x3d, 0xab, 0x2c, 0x24, 0xbe,
  0x16, 0xa7, 0x0f, 0xbe, 0xd6, 0x37, 0x4d, 0xbe, 0xab, 0x2c, 0x24, 0x3e,
  0x16, 0xa7, 0x0f, 0xbe, 0x00, 0x43, 0x76, 0xbd, 0xd6, 0x37, 0x4d, 0x3e,
  0xab, 0x2c, 0xa4, 0x3c, 0xe6, 0x42, 0x00, 0x3f, 0xab, 0x2c, 0x24, 0x3e,
  0xf3, 0x42, 0xbb, 0xbf, 0xab, 0x2c, 0x24, 0x3d, 0xab, 0x2c, 0x24, 0xbe,
  0x52, 0xe4, 0x22, 0xc0, 0xd6, 0x37, 0xcd, 0x3d, 0x40, 0xb2, 0x38, 0x3e,
  0xe8, 0x90, 0xee, 0xbf, 0x00, 0x43, 0x76, 0x3d, 0xd6, 0x37, 0xcd, 0xbd,
  0x16, 0xa7, 0x0f, 0x3e, 0x0b, 0xf5, 0xc2, 0xbf, 0xd6, 0x37, 0xcd, 0xbe,
  0x6b, 0xbd, 0xe1, 0xbf, 0xe6, 0x42, 0x00, 0x3f, 0xab, 0x2c, 0x24, 0xbe,
  0xab, 0x2c, 0xa4, 0xbc, 0x7b, 0xc8, 0x14, 0xbf, 0x00, 0x43, 0x76, 0x3d,
  0x40, 0xb2, 0xb8, 0xbe, 0xab, 0x2c, 0xa4, 0x3e, 0x57, 0x3d, 0x09, 0xc0,
  0x00, 0x43, 0xf6, 0x3d, 0xab, 0x2c, 0x24, 0x3d, 0xe0, 0xe9, 0x99, 0xbf,
  0x40, 0xb2, 0xb8, 0xbf, 0x40, 0xb2, 0x38, 0xbf, 0x16, 0xa7, 0x0f, 0x3e,
  0xab, 0x2c, 0xa4, 0x3c, 0x16, 0xa7, 0x0f, 0x3e, 0x3b, 0x59, 0xd2, 0xbf,
  0x16, 0xa7, 0x0f, 0x3e, 0xab, 0x2c, 0xa4, 0x3c, 0x76, 0x6f, 0x2e, 0xbf,
  0x7b, 0xc8, 0x14, 0xbf, 0x00, 0x43, 0x76, 0xbd, 0x40, 0xb2, 0x38, 0x3e,
  0xab, 0x2c, 0xa4, 0x3c, 0x00, 0x43, 0xf6, 0x3d, 0x00, 0x43, 0x76, 0x3d,
  0xd6, 0x37, 0xcd, 0x3d, 0xab, 0x2c, 0x24, 0x3d, 0x16, 0xa7, 0x8f, 0x3e,
  0x23, 0xa7, 0xca, 0xbf, 0x0b, 0xf5, 0xc2, 0x3e, 0xd6, 0x37, 0x4d, 0x3e,
  0x4b, 0x64, 0x05, 0x3f, 0x00, 0x43, 0x76, 0x3d, 0x00, 0x43, 0x76, 0x3d,
  0x16, 0xa7, 0x0f, 0x3e, 0x28, 0x00, 0xb1, 0xbf, 0x52, 0xe4, 0x22, 0xc0,
  0x00, 0x43, 0xf6, 0x3d, 0xab, 0x2c, 0xa4, 0x3c, 0x00, 0x43, 0xf6, 0x3d,
  0x40, 0xb2, 0x38, 0x3e, 0xab, 0x2c, 0x24, 0x3e, 0xab, 0x2c, 0xa4, 0x3d,
  0x36, 0x00, 0xec, 0xbe, 0xab, 0x2c, 0x24, 0xbf, 0xe0, 0xe9, 0x99, 0xbe,
  0xab, 0x2c, 0xa4, 0xbd, 0xe6, 0x42, 0x80, 0xbf, 0x16, 0xa7, 0x8f, 0xbe,
  0xc8, 0x37, 0x92, 0xbf, 0xab, 0x2c, 0xa4, 0x3d, 0x00, 0x43, 0x76, 0xbd,
  0xab, 0x2c, 0xa4, 0xbd, 0xab, 0x2c, 0xa4, 0x3d, 0x66, 0x64, 0x7b, 0xbf,
  0x4b, 0x64, 0x85, 0xbe, 0xab, 0x2c, 0x24, 0x3d, 0xab, 0x2c, 0x24, 0x3d,
  0xd6, 0x37, 0xcd, 0x3d, 0xa0, 0x7a, 0xd7, 0xbf, 0xab, 0x2c, 0x24, 0x3d,
  0xab, 0x2c, 0xa4, 0xbf, 0xab, 0x2c, 0x24, 0x3d, 0xd6, 0x37, 0xcd, 0xbd,
  0xa0, 0x7a, 0xd7, 0xbe, 0xab, 0x2c, 0xa4, 0x3c, 0x00, 0x43, 0x76, 0xbd,
  0x00, 0x43, 0x76, 0x3d, 0xab, 0x2c, 0x24, 0x3d, 0xab, 0x2c, 0xa4, 0x3c,
  0x00, 0x43, 0x76, 0x3d, 0xab, 0x2c, 0xa4, 0xbe, 0xe0, 0xe9, 0x99, 0xbe,
  0xab, 0x2c, 0x24, 0x3d, 0x6b, 0xbd, 0x61, 0xbe, 0x00, 0x43, 0xf6, 0xbd,
  0xd6, 0x37, 0xcd, 0x3d, 0xab, 0x2c, 0x24, 0x3d, 0x4b, 0x64, 0x05, 0x3f,
  0xab, 0x2c, 0xa4, 0x3c, 0x40, 0xb2, 0x38, 0xbe, 0xab, 0x2c, 0x24, 0x3d,
  0x00, 0x00, 0x00, 0x00, 0xe0, 0xe9, 0x19, 0xbf, 0x7b, 0xc8, 0x14, 0xbf,
  0xab, 0x2c, 0xa4, 0x3c, 0x00, 0x43, 0xf6, 0xbd, 0x16, 0xa7, 0x0f, 0xbe,
  0xfe, 0xf4, 0x87, 0xbf, 0xab, 0x2c, 0xa4, 0x3c, 0xab, 0x2c, 0x24, 0xbd,
  0x10, 0x4e, 0xa9, 0xbf, 0xab, 0x2c, 0x24, 0x3e, 0xab, 0x2c, 0x24, 0xbd,
  0x0b, 0xf5, 0xc2, 0xbe, 0x7b, 0xc8, 0x94, 0xbf, 0xab, 0x2c, 0xa4, 0x3d,
  0x3b, 0x59, 0x52, 0xbf, 0x40, 0xb2, 0xb8, 0xbe, 0x00, 0x43, 0x76, 0xbd,
  0xab, 0x2c, 0xa4, 0x3d, 0x00, 0x43, 0x76, 0x3d, 0xd6, 0x37, 0xcd, 0xbf,
  0x40, 0xb2, 0xb8, 0xbf, 0x3b, 0x59, 0x52, 0xbf, 0x4b, 0x64, 0x85, 0xbe,
  0x4b, 0x64, 0x85, 0xbf, 0xab, 0x2c, 0xa4, 0x3d, 0xab, 0x2c, 0xa4, 0xbd,
  0x00, 0x43, 0xf6, 0x3d, 0xab, 0x2c, 0x24, 0x3e, 0x00, 0x43, 0xf6, 0xbd,
  0xab, 0x2c, 0xa4, 0x3d, 0x76, 0x6f, 0xae, 0xbe, 0x40, 0xb2, 0x38, 0x3e,
  0x00, 0x43, 0xf6, 0xbd, 0xdb, 0x90, 0xb3, 0xbf, 0xab, 0x2c, 0xa4, 0x3d,
  0xab, 0x2c, 0x24, 0x3d, 0x4b, 0x64, 0x05, 0xbf, 0x40, 0xb2, 0x38, 0xbe,
  0x00, 0x43, 0xf6, 0xbd, 0x00, 0x43, 0x76, 0xbd, 0x00, 0x00, 0x00, 0x00,
  0x00, 0x00, 0x00, 0x00, 0x46, 0x0b, 0x1f, 0xbf, 0x00, 0x00, 0x00, 0x00,
  0x00, 0x43, 0x76, 0xbd, 0x00, 0x43, 0x76, 0x3d, 0x3b, 0x59, 0x52, 0xbf,
  0xa0, 0x7a, 0xd7, 0xbe, 0x23, 0xa7, 0xca, 0xbf, 0x00, 0x00, 0x00, 0x00,
  0xab, 0x2c, 0x24, 0xbe, 0x00, 0x43, 0xf6, 0x3d, 0xb0, 0x85, 0x8a, 0xbf,
  0x00, 0x43, 0xf6, 0x3d, 0xab, 0x2c, 0xa4, 0xbd, 0x16, 0xa7, 0x0f, 0x3e,
  0x00, 0x43, 0x76, 0x3d, 0x4b, 0x64, 0x85, 0x3e, 0xab, 0x2c, 0x24, 0x3d,
  0x10, 0x4e, 0x29, 0xbf, 0x00, 0x43, 0xf6, 0x3d, 0x36, 0x00, 0xec, 0xbe,
  0x70, 0x16, 0xc8, 0xbf, 0x00, 0x00, 0x00, 0x00, 0xab, 0x2c, 0x24, 0x3d,
  0xab, 0x2c, 0xa4, 0x3d, 0xab, 0x2c, 0xa4, 0xbc, 0xf8, 0x9b, 0xa1, 0xbf,
  0x7b, 0xc8, 0x14, 0xbf, 0x00, 0x43, 0x76, 0x3d, 0xdb, 0x90, 0x33, 0xbf,
  0x16, 0xa7, 0x0f, 0x3e, 0x36, 0x00, 0xec, 0xbe, 0x00, 0x00, 0x00, 0x00,
  0x28, 0x00, 0xb1, 0xbf, 0x00, 0x43, 0x76, 0xbd, 0x40, 0xb2, 0x38, 0xbf,
  0x76, 0x6f, 0xae, 0xbf, 0xab, 0x2c, 0x24, 0x3d, 0x6b, 0xbd, 0x61, 0x3e,
  0x0b, 0xf5, 0xc2, 0x3e, 0xd6, 0x37, 0xcd, 0xbd, 0xab, 0x2c, 0xa4, 0xbc,
  0x76, 0x6f, 0xae, 0xbe, 0x9b, 0x21, 0x71, 0xbf, 0xab, 0x2c, 0x24, 0xbd,
  0xab, 0x2c, 0xa4, 0xbd, 0x40, 0xb2, 0x38, 0xbe, 0xd6, 0x37, 0xcd, 0x3d,
  0x16, 0xa7, 0x8f, 0x3e, 0x00, 0x00, 0x00, 0x00, 0xab, 0x2c, 0x24, 0x3d,
  0xd6, 0x37, 0xcd, 0xbd, 0xdb, 0x90, 0x33, 0xbf, 0xd6, 0x37, 0xcd, 0x3d,
  0xd6, 0x37, 0xcd, 0xbd, 0x6b, 0xbd, 0x61, 0x3e, 0x00, 0x43, 0xf6, 0xbd,
  0x4b, 0x64, 0x85, 0xbe, 0x00, 0x00, 0x00, 0x00, 0xab, 0x2c, 0xa4, 0x3d,
  0xd6, 0x37, 0xcd, 0xbe, 0x00, 0x00, 0x00, 0x00, 0xe0, 0xe9, 0x99, 0x3e,
  0x00, 0x43, 0xf6, 0x3d, 0x00, 0x00, 0x00, 0x00, 0xab, 0x2c, 0x24, 0x3e,
  0xab, 0x2c, 0x24, 0x3d, 0x4b, 0x64, 0x85, 0x3e, 0x6b, 0xbd, 0xe1, 0x3e,
  0x36, 0x00, 0x6c, 0xbf, 0x6b, 0xbd, 0xe1, 0xbe, 0xa4, 0xac, 0x06, 0xc0,
  0x00, 0x43, 0x76, 0xbd, 0x76, 0x6f, 0xae, 0xbe, 0x6b, 0xbd, 0x61, 0x3e,
  0xd6, 0x37, 0xcd, 0x3d, 0x00, 0x43, 0x76, 0xbd, 0xab, 0x2c, 0x24, 0x3d,
  0xd6, 0x37, 0x4d, 0x3e, 0x00, 0x43, 0x76, 0x3d, 0xe0, 0xe9, 0x99, 0x3e,
  0x00, 0x00, 0x00, 0x00, 0xab, 0x2c, 0xa4, 0x3c, 0x00, 0x43, 0x76, 0xbd,
  0x40, 0xb2, 0xb8, 0x3e, 0x93, 0x7a, 0x9c, 0xbf, 0xab, 0x2c, 0xa4, 0xbc,
